unsigned char model_tflite[] = {
  0x1c, 0x00, 0x00, 0x00, 0x54, 0x46, 0x4c, 0x33, 0x14, 0x00, 0x20, 0x00,
  0x1c, 0x00, 0x18, 0x00, 0x14, 0x00, 0x10, 0x00, 0x0c, 0x00, 0x00, 0x00,
  0x08, 0x00, 0x04, 0x00, 0x14, 0x00, 0x00, 0x00, 0x1c, 0x00, 0x00, 0x00,
  0xa4, 0x00, 0x00, 0x00, 0xfc, 0x00, 0x00, 0x00, 0x3c, 0x19, 0x00, 0x00,
  0x4c, 0x19, 0x00, 0x00, 0x18, 0x21, 0x00, 0x00, 0x03, 0x00, 0x00, 0x00,
  0x01, 0x00, 0x00, 0x00, 0x10, 0x00, 0x00, 0x00, 0x00, 0x00, 0x0a, 0x00,
  0x10, 0x00, 0x0c, 0x00, 0x08, 0x00, 0x04, 0x00, 0x0a, 0x00, 0x00, 0x00,
  0x0c, 0x00, 0x00, 0x00, 0x1c, 0x00, 0x00, 0x00, 0x40, 0x00, 0x00, 0x00,
  0x0f, 0x00, 0x00, 0x00, 0x73, 0x65, 0x72, 0x76, 0x69, 0x6e, 0x67, 0x5f,
  0x64, 0x65, 0x66, 0x61, 0x75, 0x6c, 0x74, 0x00, 0x01, 0x00, 0x00, 0x00,
  0x04, 0x00, 0x00, 0x00, 0x84, 0xff, 0xff, 0xff, 0x0d, 0x00, 0x00, 0x00,
  0x04, 0x00, 0x00, 0x00, 0x0c, 0x00, 0x00, 0x00, 0x64, 0x65, 0x6e, 0x73,
  0x65, 0x5f, 0x44, 0x65, 0x6e, 0x73, 0x65, 0x38, 0x00, 0x00, 0x00, 0x00,
  0x01, 0x00, 0x00, 0x00, 0x04, 0x00, 0x00, 0x00, 0xb6, 0xe6, 0xff, 0xff,
  0x04, 0x00, 0x00, 0x00, 0x16, 0x00, 0x00, 0x00, 0x66, 0x6c, 0x61, 0x74,
  0x74, 0x65, 0x6e, 0x5f, 0x46, 0x6c, 0x61, 0x74, 0x74, 0x65, 0x6e, 0x32,
  0x5f, 0x69, 0x6e, 0x70, 0x75, 0x74, 0x00, 0x00, 0x02, 0x00, 0x00, 0x00,
  0x34, 0x00, 0x00, 0x00, 0x04, 0x00, 0x00, 0x00, 0xdc, 0xff, 0xff, 0xff,
  0x10, 0x00, 0x00, 0x00, 0x04, 0x00, 0x00, 0x00, 0x13, 0x00, 0x00, 0x00,
  0x43, 0x4f, 0x4e, 0x56, 0x45, 0x52, 0x53, 0x49, 0x4f, 0x4e, 0x5f, 0x4d,
  0x45, 0x54, 0x41, 0x44, 0x41, 0x54, 0x41, 0x00, 0x08, 0x00, 0x0c, 0x00,
  0x08, 0x00, 0x04, 0x00, 0x08, 0x00, 0x00, 0x00, 0x0f, 0x00, 0x00, 0x00,
  0x04, 0x00, 0x00, 0x00, 0x13, 0x00, 0x00, 0x00, 0x6d, 0x69, 0x6e, 0x5f,
  0x72, 0x75, 0x6e, 0x74, 0x69, 0x6d, 0x65, 0x5f, 0x76, 0x65, 0x72, 0x73,
  0x69, 0x6f, 0x6e, 0x00, 0x11, 0x00, 0x00, 0x00, 0x3c, 0x18, 0x00, 0x00,
  0x34, 0x18, 0x00, 0x00, 0xd4, 0x17, 0x00, 0x00, 0xb8, 0x17, 0x00, 0x00,
  0xa0, 0x17, 0x00, 0x00, 0x30, 0x0e, 0x00, 0x00, 0xa0, 0x0b, 0x00, 0x00,
  0x30, 0x02, 0x00, 0x00, 0xb8, 0x00, 0x00, 0x00, 0xb0, 0x00, 0x00, 0x00,
  0xa8, 0x00, 0x00, 0x00, 0xa0, 0x00, 0x00, 0x00, 0x98, 0x00, 0x00, 0x00,
  0x90, 0x00, 0x00, 0x00, 0x88, 0x00, 0x00, 0x00, 0x68, 0x00, 0x00, 0x00,
  0x04, 0x00, 0x00, 0x00, 0x7e, 0xe7, 0xff, 0xff, 0x04, 0x00, 0x00, 0x00,
  0x54, 0x00, 0x00, 0x00, 0x0c, 0x00, 0x00, 0x00, 0x08, 0x00, 0x0e, 0x00,
  0x08, 0x00, 0x04, 0x00, 0x08, 0x00, 0x00, 0x00, 0x10, 0x00, 0x00, 0x00,
  0x24, 0x00, 0x00, 0x00, 0x00, 0x00, 0x06, 0x00, 0x08, 0x00, 0x04, 0x00,
  0x06, 0x00, 0x00, 0x00, 0x04, 0x00, 0x00, 0x00, 0x00, 0x00, 0x00, 0x00,
  0x00, 0x00, 0x0a, 0x00, 0x10, 0x00, 0x0c, 0x00, 0x08, 0x00, 0x04, 0x00,
  0x0a, 0x00, 0x00, 0x00, 0x02, 0x00, 0x00, 0x00, 0x02, 0x00, 0x00, 0x00,
  0x04, 0x00, 0x00, 0x00, 0x06, 0x00, 0x00, 0x00, 0x32, 0x2e, 0x31, 0x34,
  0x2e, 0x30, 0x00, 0x00, 0xde, 0xe7, 0xff, 0xff, 0x04, 0x00, 0x00, 0x00,
  0x10, 0x00, 0x00, 0x00, 0x31, 0x2e, 0x35, 0x2e, 0x30, 0x00, 0x00, 0x00,
  0x00, 0x00, 0x00, 0x00, 0x00, 0x00, 0x00, 0x00, 0xe4, 0xe0, 0xff, 0xff,
  0xe8, 0xe0, 0xff, 0xff, 0xec, 0xe0, 0xff, 0xff, 0xf0, 0xe0, 0xff, 0xff,
  0xf4, 0xe0, 0xff, 0xff, 0xf8, 0xe0, 0xff, 0xff, 0x12, 0xe8, 0xff, 0xff,
  0x04, 0x00, 0x00, 0x00, 0x68, 0x01, 0x00, 0x00, 0x2c, 0x26, 0xfb, 0x3e,
  0x93, 0xde, 0x81, 0xbe, 0x25, 0x0e, 0xab, 0xbe, 0xd8, 0x8a, 0xb3, 0x3c,
  0x36, 0xdc, 0xbe, 0xbd, 0x31, 0xbf, 0x95, 0xbc, 0x07, 0xff, 0x8c, 0x3e,
  0xf4, 0x3e, 0xf7, 0xbe, 0x8c, 0x03, 0xf8, 0x3e, 0x94, 0x48, 0x5b, 0xbd,
  0xe1, 0x1c, 0x5b, 0xbe, 0xd7, 0x1d, 0xc3, 0xbe, 0xe9, 0xa5, 0x17, 0xbd,
  0x42, 0x8e, 0x1d, 0xbe, 0xf0, 0x21, 0x2b, 0x3e, 0x4c, 0x84, 0xc9, 0xbe,
  0xd3, 0xb8, 0x10, 0xbe, 0x4d, 0x19, 0x84, 0xbe, 0x5c, 0xd5, 0x04, 0xbf,
  0x0b, 0x61, 0x4f, 0xbe, 0xcf, 0x29, 0x5c, 0x3d, 0xed, 0xab, 0x27, 0x3e,
  0xa2, 0xd1, 0xa9, 0x3e, 0xa4, 0x01, 0xd3, 0x3d, 0x50, 0x6e, 0x56, 0x3d,
  0xd6, 0xe8, 0x82, 0xbc, 0xcc, 0xd2, 0x0d, 0xbe, 0x76, 0xd9, 0xe2, 0x3e,
  0x1a, 0xa3, 0x76, 0x3e, 0xff, 0x58, 0x4d, 0xbe, 0x00, 0x66, 0xbf, 0xbd,
  0x5b, 0x91, 0xcf, 0x3c, 0x90, 0x3c, 0x29, 0x3d, 0xcc, 0xf4, 0xd1, 0x3c,
  0xe2, 0x52, 0xd2, 0x3c, 0xd5, 0x98, 0x2c, 0xbe, 0xbe, 0x39, 0x9a, 0xbe,
  0xd8, 0xcc, 0x5c, 0x3d, 0x83, 0xa0, 0xde, 0x3d, 0x70, 0x98, 0x3c, 0xbc,
  0x10, 0xfa, 0x9a, 0xbb, 0x4d, 0x8e, 0x1e, 0xbe, 0xf3, 0x86, 0x31, 0xbe,
  0xee, 0x0b, 0x80, 0x3d, 0x9f, 0x08, 0x24, 0xbd, 0xd1, 0x09, 0x6d, 0xbd,
  0xff, 0x1f, 0xea, 0x3e, 0xe2, 0x29, 0xd7, 0xbe, 0x31, 0x87, 0xb8, 0xbd,
  0x4a, 0x8f, 0x6f, 0x3d, 0x73, 0xa6, 0xb3, 0xbe, 0x24, 0x98, 0xc0, 0xbe,
  0x25, 0xb9, 0x2f, 0x3e, 0xdb, 0xe8, 0x58, 0xbe, 0xe0, 0xd2, 0x7d, 0xbe,
  0x35, 0x69, 0xfd, 0xbd, 0x68, 0x11, 0x97, 0xbe, 0xb4, 0xcf, 0xa6, 0x3e,
  0x5a, 0x97, 0x53, 0xbe, 0xa4, 0xf6, 0xca, 0x3e, 0x35, 0x7e, 0xd4, 0x3e,
  0x3a, 0x59, 0x23, 0x3e, 0x89, 0x96, 0x28, 0x3e, 0xb7, 0xfc, 0x3a, 0xbe,
  0x81, 0x60, 0x2a, 0x3e, 0xe3, 0x7b, 0x22, 0xbe, 0xba, 0x3c, 0x03, 0x3e,
  0xae, 0x51, 0x6a, 0xbd, 0x2c, 0xae, 0x87, 0x3c, 0x86, 0x6c, 0x8a, 0x3e,
  0x9a, 0x85, 0xd7, 0xbe, 0x3c, 0xfb, 0xd8, 0xbe, 0x37, 0x41, 0xc3, 0xbe,
  0x3f, 0x70, 0x8f, 0xbd, 0x35, 0xcb, 0x80, 0x3b, 0x8f, 0x68, 0xba, 0xbe,
  0x32, 0x28, 0x43, 0xbe, 0x95, 0x21, 0x2f, 0x3e, 0x54, 0x4b, 0xbf, 0xbd,
  0x34, 0x41, 0xa6, 0x3e, 0x7e, 0x94, 0x7b, 0x3d, 0xe4, 0x91, 0x79, 0xbe,
  0x14, 0x72, 0x5f, 0xbe, 0x9f, 0xe7, 0x85, 0x3d, 0xf2, 0xe4, 0xf0, 0xbe,
  0xc2, 0x67, 0x50, 0xbd, 0x82, 0x3d, 0x64, 0xbe, 0x76, 0xd1, 0xb9, 0xbc,
  0xca, 0xe4, 0x76, 0x3e, 0xbf, 0xb8, 0xb6, 0xbe, 0x86, 0xe9, 0xff, 0xff,
  0x04, 0x00, 0x00, 0x00, 0x60, 0x09, 0x00, 0x00, 0x31, 0xc7, 0xc2, 0xbe,
  0x34, 0x97, 0x90, 0x3d, 0x68, 0xff, 0xab, 0xbd, 0x46, 0x04, 0x25, 0x3e,
  0xe7, 0x3f, 0x87, 0xbe, 0x52, 0x4b, 0x56, 0x3e, 0xf5, 0xd1, 0xc1, 0xbd,
  0xbe, 0xe6, 0xb1, 0x3d, 0xf0, 0x7d, 0x95, 0xbe, 0x93, 0x47, 0x9b, 0xbd,
  0x72, 0xfd, 0x7e, 0x3e, 0xd7, 0xed, 0x93, 0x3d, 0xc9, 0x4c, 0x2f, 0x3d,
  0xca, 0xba, 0x31, 0xbe, 0x50, 0x7d, 0x0f, 0x3e, 0x38, 0xd9, 0x1f, 0x3e,
  0x23, 0x16, 0xc3, 0x3d, 0xcd, 0xb4, 0x85, 0xbd, 0x77, 0x4a, 0xfd, 0x3d,
  0x91, 0x93, 0x2b, 0xbe, 0x1c, 0x77, 0x11, 0xbe, 0xce, 0xdb, 0x8b, 0xbe,
  0xd1, 0xd7, 0x9f, 0x3d, 0x2e, 0x18, 0x19, 0x3e, 0x8f, 0x25, 0x26, 0xbd,
  0x60, 0x0b, 0xb1, 0xbd, 0x51, 0x0d, 0xa0, 0x3e, 0x7f, 0xbb, 0x07, 0xbe,
  0xf0, 0xa8, 0x68, 0xbd, 0x24, 0xb3, 0xa2, 0x3d, 0x60, 0x9b, 0x07, 0x3e,
  0x3b, 0x11, 0x94, 0xbd, 0x18, 0x3c, 0x61, 0xbe, 0xe4, 0x02, 0xc8, 0x3e,
  0xcd, 0xc4, 0x1c, 0x3d, 0x3e, 0xff, 0x6a, 0x3e, 0xe5, 0x42, 0x3e, 0x3d,
  0xab, 0xc2, 0xbe, 0xbd, 0xc6, 0x21, 0x11, 0x3d, 0xba, 0xae, 0xb0, 0xbd,
  0xed, 0x45, 0xed, 0x3d, 0xd6, 0x79, 0x2a, 0xbe, 0x68, 0x32, 0x96, 0x3e,
  0xf2, 0x1a, 0x50, 0xbe, 0xfb, 0xe6, 0x13, 0x3d, 0x0a, 0x71, 0x62, 0x3d,
  0x05, 0xa9, 0x80, 0x3e, 0xb7, 0xd6, 0x34, 0xbe, 0x3a, 0x6f, 0x76, 0xbe,
  0xbf, 0xd3, 0x4d, 0xbc, 0x3b, 0xdc, 0x46, 0xbe, 0xac, 0xeb, 0x7a, 0xbe,
  0x90, 0x79, 0xb5, 0xbe, 0x39, 0x94, 0x0d, 0x3d, 0xa3, 0xb6, 0x03, 0xbd,
  0xd5, 0x21, 0xea, 0x3d, 0x23, 0xfe, 0xc9, 0xbc, 0x0a, 0xe4, 0xa0, 0x3e,
  0x7a, 0x0f, 0x62, 0x3c, 0xaa, 0xb5, 0x76, 0x3e, 0x13, 0x5a, 0x37, 0x3e,
  0xba, 0x09, 0x44, 0x3e, 0x53, 0xab, 0xcb, 0xbd, 0x6d, 0x9f, 0xcc, 0xbe,
  0xe5, 0x07, 0x5d, 0x3e, 0x72, 0xed, 0x34, 0x3c, 0xe7, 0xac, 0x3c, 0xbe,
  0xfd, 0xf5, 0xc9, 0xbd, 0xcd, 0x87, 0x29, 0x3e, 0x7d, 0x8a, 0x2c, 0xbe,
  0x40, 0x21, 0x91, 0xbd, 0xa8, 0x4a, 0x84, 0x3e, 0xd0, 0xdd, 0xc4, 0x3c,
  0x3c, 0x7b, 0x0e, 0xbe, 0x4d, 0xa1, 0xa9, 0x3e, 0x5b, 0x87, 0x03, 0x3e,
  0x77, 0xee, 0x11, 0xbc, 0x5d, 0x7f, 0x37, 0xbe, 0xc4, 0xf4, 0x25, 0xbe,
  0x1f, 0x09, 0x5a, 0x3e, 0xda, 0x51, 0x4b, 0x3e, 0x45, 0x0b, 0x4a, 0x3e,
  0x97, 0x8e, 0x7e, 0x3e, 0xb1, 0xde, 0xc7, 0x3b, 0x38, 0xe7, 0xd4, 0xbd,
  0xa6, 0x92, 0x13, 0x3d, 0x68, 0x67, 0x9f, 0xbd, 0xd2, 0xe9, 0x6e, 0x3d,
  0x8a, 0x34, 0x23, 0x3d, 0x61, 0x46, 0x65, 0xbe, 0x2f, 0xe2, 0x0d, 0xbe,
  0x02, 0xd1, 0xd0, 0x3d, 0x53, 0xd3, 0xd4, 0x3d, 0x99, 0xca, 0x7a, 0xbe,
  0x49, 0x91, 0xff, 0x3d, 0x6f, 0xd6, 0x08, 0xbe, 0xc4, 0x43, 0x1e, 0x3e,
  0xbb, 0xea, 0xe8, 0x3a, 0x4d, 0x1c, 0x61, 0xbe, 0x49, 0xf3, 0xdf, 0x3d,
  0x74, 0x48, 0x12, 0x3e, 0xc5, 0x48, 0xd2, 0x3e, 0xd7, 0x6c, 0xaf, 0x3d,
  0xe7, 0x68, 0x06, 0xbd, 0xfa, 0x75, 0x44, 0x3d, 0x99, 0xab, 0x37, 0x3e,
  0x22, 0x98, 0x9d, 0xbe, 0xf9, 0x24, 0x3e, 0xbe, 0xd3, 0xf5, 0x1e, 0xbe,
  0x7d, 0xeb, 0x15, 0x3d, 0x3c, 0x3b, 0x7d, 0x3e, 0xe2, 0xe6, 0x11, 0x3e,
  0x4f, 0x00, 0x25, 0xbc, 0x86, 0x07, 0x56, 0x3e, 0xae, 0xed, 0xc2, 0x3d,
  0x9a, 0x5b, 0x95, 0xbd, 0x07, 0xac, 0xe3, 0xbd, 0x28, 0x5e, 0x3f, 0xbe,
  0x3a, 0xe5, 0xa8, 0xbd, 0x11, 0x13, 0xf3, 0xbd, 0xe7, 0x68, 0xc2, 0xbd,
  0x57, 0x18, 0x13, 0x3e, 0x81, 0x45, 0x93, 0x3d, 0x91, 0xb4, 0x68, 0xbd,
  0xd2, 0x14, 0x31, 0xbd, 0xa3, 0x96, 0x81, 0xbd, 0xd9, 0x34, 0xd2, 0xbe,
  0xe2, 0xb1, 0xac, 0xbe, 0x4f, 0x94, 0xaa, 0x3c, 0xd1, 0x90, 0x5a, 0x3e,
  0x48, 0xe0, 0x29, 0x3e, 0x1a, 0x4e, 0x30, 0x3e, 0x53, 0x37, 0x02, 0xbd,
  0x8b, 0xb9, 0x89, 0x3e, 0x5c, 0x86, 0x6e, 0xbc, 0xcc, 0x37, 0x91, 0x3d,
  0xc7, 0x33, 0x11, 0xbe, 0xae, 0x1e, 0xdf, 0xbd, 0x9c, 0xd9, 0xd7, 0x3c,
  0xe5, 0x38, 0x56, 0x3e, 0xe9, 0x13, 0x60, 0x3e, 0xef, 0x20, 0x92, 0xbd,
  0x32, 0x8a, 0xc5, 0x3c, 0x32, 0x10, 0x8b, 0x3d, 0x55, 0x6b, 0x1f, 0xbd,
  0xbe, 0x80, 0x90, 0x3e, 0xae, 0x3c, 0x03, 0x3d, 0xe9, 0x14, 0x98, 0xbe,
  0x6f, 0x81, 0x27, 0x3d, 0x4e, 0x7f, 0x88, 0xbe, 0x54, 0x25, 0x80, 0xbe,
  0x89, 0x04, 0xc6, 0xbd, 0xae, 0x46, 0xce, 0xbd, 0xa9, 0x4c, 0x83, 0xbd,
  0xc3, 0x0b, 0x1e, 0x3e, 0x73, 0xae, 0x05, 0x3d, 0xe8, 0x08, 0x99, 0x3d,
  0xf7, 0x38, 0x3d, 0xbe, 0x09, 0x22, 0x84, 0xbd, 0x4d, 0x08, 0xfa, 0xbd,
  0x64, 0x03, 0x91, 0xbc, 0x5a, 0xbc, 0xa8, 0x3e, 0x6a, 0x4a, 0x72, 0x3d,
  0x42, 0x2e, 0x47, 0x3e, 0x7e, 0x52, 0x6a, 0x3e, 0xb1, 0x2d, 0x15, 0xbe,
  0xd2, 0x16, 0x1f, 0xbd, 0xaf, 0xa4, 0x4c, 0xbe, 0x77, 0x8f, 0xc2, 0x3d,
  0x73, 0xdd, 0x11, 0x3e, 0x4d, 0x13, 0x80, 0xbd, 0x03, 0x5a, 0xb7, 0x3c,
  0xdb, 0xc3, 0x76, 0x3e, 0x96, 0xbc, 0x6f, 0x3c, 0x68, 0x1d, 0x60, 0x3e,
  0x2c, 0xd5, 0x85, 0xbe, 0x2b, 0xc5, 0x0b, 0xbe, 0x54, 0x60, 0x41, 0x3e,
  0x75, 0x81, 0xa5, 0xbe, 0x1a, 0x62, 0x81, 0x3d, 0x85, 0x43, 0x73, 0xbe,
  0x90, 0xa9, 0x49, 0xbe, 0xc3, 0x78, 0x9e, 0x3d, 0xbe, 0x43, 0x12, 0xbc,
  0x54, 0x8d, 0xfe, 0x3c, 0x9a, 0x8d, 0xf6, 0x3b, 0xa5, 0x7f, 0x33, 0x3e,
  0x16, 0x55, 0x26, 0x3c, 0xb5, 0xe6, 0xd9, 0xbd, 0x69, 0xd4, 0x66, 0x3e,
  0x9d, 0xd5, 0x29, 0xbd, 0x3d, 0x5c, 0xb1, 0xbe, 0x50, 0xd0, 0x8f, 0xbc,
  0x4b, 0x36, 0x1a, 0xbd, 0xc5, 0xe3, 0xb9, 0xbe, 0xb6, 0xf0, 0x67, 0x3d,
  0xbc, 0xa6, 0x05, 0x3e, 0x88, 0x83, 0xff, 0xbd, 0x4a, 0x2d, 0x37, 0xbe,
  0x32, 0xcc, 0x7f, 0xbb, 0xac, 0x5b, 0x37, 0xbe, 0x34, 0x3f, 0x00, 0xbe,
  0x50, 0x41, 0x0d, 0xbe, 0x3f, 0x57, 0x45, 0xbd, 0x78, 0x38, 0x40, 0xbe,
  0xb6, 0x9e, 0xa2, 0x3d, 0xac, 0xfd, 0xbe, 0xbd, 0x81, 0xec, 0x2b, 0xbd,
  0x61, 0xfe, 0x5e, 0xbe, 0x0b, 0x2c, 0x89, 0xbe, 0x91, 0xf2, 0x35, 0xbe,
  0xd9, 0xc6, 0x33, 0x3e, 0x36, 0x91, 0x29, 0xbd, 0x37, 0x04, 0x00, 0xbd,
  0xf5, 0x82, 0x83, 0xbe, 0x09, 0xd3, 0x9a, 0x3c, 0x6e, 0xfc, 0x62, 0xbe,
  0x0d, 0x82, 0x8b, 0xbe, 0x72, 0x09, 0x88, 0xbe, 0x7c, 0x00, 0xa3, 0xbe,
  0x33, 0xd6, 0x9c, 0xbd, 0x01, 0x73, 0x7b, 0xbb, 0x7e, 0x11, 0x75, 0x3e,
  0x53, 0x80, 0x43, 0xbc, 0xd8, 0x1d, 0x13, 0xbe, 0xc7, 0x3a, 0x99, 0xbd,
  0x81, 0xee, 0x4e, 0x3e, 0x9a, 0x31, 0x2a, 0xbe, 0x15, 0xe6, 0x26, 0xbe,
  0xe6, 0x03, 0x40, 0x3e, 0x01, 0xad, 0xaf, 0x3e, 0x13, 0xe0, 0x4f, 0x3d,
  0x5b, 0x24, 0x4e, 0x3d, 0x0f, 0x82, 0x93, 0x3e, 0x1c, 0x73, 0x25, 0x3e,
  0x02, 0x62, 0x09, 0xbe, 0x49, 0x0d, 0xde, 0x3d, 0xdb, 0x61, 0x80, 0x3e,
  0x48, 0x6c, 0xa3, 0xbe, 0x75, 0x0e, 0x89, 0xbd, 0x4a, 0x74, 0x9e, 0xbd,
  0x94, 0x49, 0x79, 0xbd, 0xae, 0x60, 0x7a, 0xbe, 0xfb, 0xd3, 0x80, 0xbe,
  0x95, 0x3b, 0x2f, 0xbe, 0x54, 0x95, 0x38, 0x3e, 0x95, 0x23, 0x9a, 0x3e,
  0x89, 0x51, 0x01, 0x3e, 0xdb, 0x35, 0x53, 0x3e, 0xe9, 0x43, 0x57, 0xbd,
  0xd6, 0xf4, 0x40, 0x3e, 0x35, 0x10, 0x2b, 0xbc, 0x86, 0x50, 0xbc, 0x3d,
  0x4d, 0xc0, 0xa8, 0xbe, 0x2a, 0x99, 0x26, 0x3e, 0x69, 0x79, 0x24, 0xbe,
  0xd2, 0xdb, 0xa1, 0xbe, 0x4f, 0x3c, 0xd4, 0x3e, 0x1f, 0x30, 0x8a, 0xbd,
  0x8c, 0xfd, 0x8b, 0xbe, 0x40, 0x83, 0x01, 0x3e, 0x55, 0xb0, 0x18, 0x3e,
  0xf1, 0xc9, 0xcd, 0x3d, 0x89, 0x47, 0xc2, 0xbd, 0xc2, 0x32, 0x21, 0xbe,
  0x4d, 0x71, 0xbd, 0xbd, 0x84, 0xe7, 0x7d, 0x3d, 0xf5, 0xe5, 0x6d, 0xbc,
  0x83, 0x20, 0x39, 0xbd, 0x35, 0xcb, 0x82, 0x3e, 0xa4, 0xed, 0xc4, 0xbe,
  0x51, 0x3e, 0x57, 0xbc, 0xff, 0x0c, 0x92, 0xbe, 0xb9, 0x3f, 0xf1, 0xbd,
  0x51, 0x7f, 0xa5, 0xbe, 0x55, 0x0b, 0x11, 0x3e, 0xb2, 0xda, 0x98, 0xbe,
  0x7d, 0xdc, 0x39, 0xbe, 0x90, 0x47, 0x50, 0xbe, 0xb1, 0x8c, 0x8d, 0x3e,
  0x52, 0xef, 0x8e, 0x3e, 0x69, 0x56, 0x1f, 0x3e, 0xea, 0x7d, 0x90, 0x3e,
  0xd0, 0xdb, 0xd9, 0x3d, 0x34, 0xa8, 0xc2, 0xbd, 0x95, 0x9b, 0x87, 0xbe,
  0x42, 0x4a, 0x9d, 0x3e, 0xe9, 0xa2, 0xc2, 0xbd, 0x8b, 0x2d, 0x71, 0x3e,
  0x49, 0x5c, 0x43, 0xbd, 0xf0, 0x03, 0x41, 0xbe, 0x5b, 0xbc, 0x03, 0x3e,
  0xb5, 0xd0, 0x44, 0xbe, 0x8c, 0x87, 0x3d, 0xbe, 0x0c, 0x88, 0xa0, 0x3d,
  0xa0, 0x34, 0x15, 0xbe, 0x90, 0xb5, 0x2f, 0x3e, 0x55, 0x54, 0x2b, 0xbe,
  0x12, 0xa7, 0x8a, 0xbd, 0x2b, 0xa6, 0xa9, 0xbb, 0x77, 0x0f, 0x71, 0x3e,
  0x6e, 0x4c, 0xa7, 0xbe, 0xf9, 0x8e, 0xf7, 0x3c, 0x47, 0xec, 0x2f, 0x3e,
  0x42, 0x9d, 0xd6, 0xbd, 0x83, 0xd9, 0x88, 0xbd, 0x83, 0x68, 0xf8, 0xbd,
  0x11, 0xf9, 0xf9, 0xbd, 0x6d, 0xc0, 0x09, 0x3d, 0x9d, 0xa7, 0xc1, 0x3d,
  0x0d, 0x3d, 0x78, 0xbd, 0x2a, 0x3a, 0x9d, 0xbe, 0xf5, 0xbb, 0xc5, 0x3e,
  0x32, 0x55, 0x9e, 0x3d, 0x39, 0x85, 0x84, 0xbd, 0x48, 0x9d, 0x07, 0x3e,
  0xce, 0x8d, 0xbc, 0x3d, 0xa6, 0xdc, 0x40, 0xbe, 0x5d, 0x9e, 0x50, 0x3e,
  0x52, 0xb8, 0xa2, 0x3d, 0x61, 0xf0, 0x58, 0x3e, 0x2e, 0xe0, 0x57, 0xbe,
  0x58, 0x71, 0x04, 0x3e, 0x8c, 0x41, 0xc3, 0xbe, 0x25, 0xca, 0x93, 0x3d,
  0x45, 0x6e, 0x63, 0x3e, 0x74, 0x5c, 0xc4, 0x3d, 0x7d, 0xec, 0x8c, 0xbe,
  0x5b, 0xb9, 0x1e, 0x3e, 0xdb, 0xf1, 0x35, 0x3e, 0x64, 0x55, 0xd2, 0xbe,
  0x5a, 0xd4, 0xa2, 0x3e, 0xb8, 0x14, 0x09, 0x3e, 0xc8, 0x7d, 0xdd, 0xbd,
  0x84, 0x24, 0x33, 0x3d, 0x8c, 0xf4, 0x40, 0x3d, 0x5c, 0xf0, 0x9b, 0x3e,
  0x25, 0xb4, 0xba, 0xbc, 0x6b, 0x2e, 0xd9, 0x3d, 0x8e, 0xdf, 0x9c, 0xbd,
  0x4e, 0x5a, 0x6a, 0xbe, 0x56, 0x24, 0x96, 0xbe, 0xdc, 0xb2, 0xda, 0xba,
  0x63, 0xaf, 0xa9, 0x3d, 0x36, 0xd2, 0x9d, 0xbe, 0x73, 0x95, 0x13, 0xbe,
  0x51, 0x80, 0x2a, 0x3a, 0x00, 0xc4, 0x88, 0x3e, 0x5e, 0x64, 0xd1, 0x3d,
  0xef, 0x30, 0xbd, 0x3e, 0xac, 0x45, 0x62, 0x3e, 0xa3, 0xe9, 0x42, 0xbd,
  0x58, 0x30, 0x0f, 0xbe, 0xd2, 0x36, 0x8c, 0xbd, 0xa6, 0x70, 0x12, 0xbd,
  0xec, 0x60, 0xa2, 0xbe, 0xcc, 0x96, 0xb7, 0xbe, 0xf7, 0x5f, 0x35, 0x3e,
  0x7b, 0xcf, 0x39, 0x3d, 0xa7, 0x98, 0x93, 0x3d, 0xbd, 0xf2, 0x55, 0x3e,
  0xd0, 0x9f, 0x97, 0xbe, 0x48, 0xfa, 0xd1, 0xbd, 0xbc, 0x70, 0x2d, 0x3c,
  0x25, 0xac, 0xb6, 0x3e, 0xc9, 0x31, 0xbc, 0x3d, 0x39, 0xdc, 0x71, 0x3e,
  0xd0, 0x67, 0x90, 0xbe, 0x8b, 0x12, 0x11, 0xbd, 0xf9, 0x11, 0x09, 0x3e,
  0x56, 0xa0, 0x53, 0xbe, 0x8d, 0x8f, 0x81, 0x3d, 0x98, 0xd6, 0x66, 0xbd,
  0x74, 0x86, 0xdc, 0x3d, 0xfe, 0xff, 0x26, 0x3e, 0xd8, 0x90, 0x59, 0x3d,
  0xcb, 0x9a, 0x9e, 0x3d, 0xe9, 0xa9, 0x50, 0x3d, 0xe3, 0x98, 0x0c, 0x3e,
  0x6c, 0xd8, 0x02, 0xbd, 0x46, 0x78, 0x80, 0x3e, 0x30, 0x8f, 0x83, 0xbe,
  0xd5, 0x20, 0x4c, 0xbe, 0x4b, 0xe9, 0x10, 0xbd, 0xf1, 0x4a, 0x36, 0x3d,
  0x5f, 0x43, 0xf4, 0x3c, 0xde, 0x13, 0xb8, 0x3d, 0x51, 0x70, 0xd2, 0x3d,
  0x09, 0xaf, 0x27, 0xbe, 0x6f, 0x50, 0x01, 0xbd, 0x43, 0x17, 0x48, 0xbe,
  0x42, 0x3f, 0xee, 0x3d, 0x0c, 0x2e, 0xb0, 0xbe, 0xeb, 0xec, 0x4e, 0xbd,
  0x84, 0x60, 0x48, 0x3e, 0x3f, 0xb0, 0x95, 0xbe, 0x4d, 0x9f, 0x6d, 0xbe,
  0x66, 0xd4, 0x4b, 0xbd, 0x5f, 0x87, 0xe8, 0x3d, 0xf3, 0x24, 0x05, 0xbe,
  0x79, 0xf7, 0x68, 0xbe, 0x00, 0x08, 0x8a, 0xbe, 0xed, 0x3c, 0x9b, 0x3c,
  0x5b, 0x1a, 0x67, 0xbd, 0xea, 0x6a, 0xd8, 0x3c, 0xaf, 0x37, 0x26, 0xbe,
  0x77, 0x50, 0x05, 0x3d, 0x43, 0xab, 0x3b, 0x3d, 0x8c, 0xba, 0x19, 0xbe,
  0xa7, 0x8e, 0xb6, 0x3e, 0x0b, 0xc4, 0x80, 0x3e, 0x16, 0xf6, 0x81, 0xbd,
  0x25, 0x55, 0x8d, 0xbe, 0x57, 0x83, 0xeb, 0x3c, 0x34, 0xc9, 0x9a, 0x3d,
  0x35, 0x0e, 0x59, 0x3e, 0xc4, 0xde, 0x41, 0x3d, 0x30, 0xfa, 0x76, 0xbd,
  0x67, 0x02, 0x44, 0xbd, 0x3f, 0x10, 0x87, 0xbd, 0xa9, 0xd9, 0x58, 0xbe,
  0x5d, 0x61, 0x5a, 0xbe, 0x20, 0x6c, 0x07, 0x3e, 0x76, 0x4a, 0xb1, 0x3d,
  0x1e, 0x64, 0x63, 0xbd, 0x31, 0x06, 0x2f, 0x3e, 0x37, 0x50, 0x5f, 0x3e,
  0x2d, 0xb4, 0x17, 0xbe, 0x18, 0xda, 0xfb, 0x3c, 0x62, 0xd2, 0xd9, 0xbd,
  0x6a, 0x9f, 0xce, 0x3c, 0xd9, 0x5c, 0x31, 0x3c, 0x12, 0x92, 0x30, 0x3d,
  0x98, 0x7d, 0x0d, 0x3c, 0x7c, 0xd7, 0x45, 0xbe, 0xd1, 0x7b, 0x9f, 0xbe,
  0x3e, 0x80, 0xfc, 0xbd, 0x22, 0x92, 0x4a, 0x3c, 0x20, 0x92, 0x45, 0x3e,
  0x05, 0x0f, 0x01, 0xbe, 0xb2, 0x3f, 0xaf, 0x3d, 0x5b, 0x4b, 0x6d, 0xbc,
  0xc0, 0x16, 0xff, 0x3d, 0x03, 0xdc, 0x6f, 0xbe, 0x53, 0x13, 0xe1, 0x3b,
  0x98, 0x11, 0x9c, 0xbd, 0x19, 0x8d, 0x0e, 0xbc, 0x8b, 0x8c, 0x16, 0x3d,
  0xac, 0xbb, 0x70, 0xbe, 0x99, 0xa9, 0x1b, 0x3e, 0x92, 0x51, 0xcb, 0x3c,
  0x2e, 0xae, 0xf7, 0xbd, 0x74, 0xd5, 0x1e, 0x3e, 0xc4, 0xf7, 0xea, 0xbd,
  0x15, 0x33, 0x97, 0xbd, 0x9c, 0x82, 0x9a, 0xbd, 0x61, 0xe1, 0x96, 0xbc,
  0x1b, 0x38, 0xc0, 0x3e, 0x8e, 0x1b, 0x0e, 0xbe, 0xc8, 0xba, 0x15, 0xbe,
  0x5c, 0xf6, 0xd3, 0x3d, 0xa9, 0x45, 0x55, 0x3d, 0xa7, 0x32, 0x10, 0x3c,
  0xf8, 0x89, 0xb0, 0xbd, 0x4a, 0x6c, 0x3e, 0x3e, 0x3a, 0x7a, 0x5c, 0xbd,
  0xcf, 0x6d, 0xc1, 0xbc, 0x3b, 0xc5, 0xd2, 0xbc, 0xea, 0xa4, 0xbe, 0x3e,
  0x4a, 0x9b, 0x6b, 0x3e, 0x69, 0x78, 0x70, 0x3d, 0x49, 0xa0, 0x29, 0x3e,
  0x66, 0x0e, 0xe4, 0x3d, 0x5b, 0x45, 0x2f, 0xbc, 0xb3, 0x9b, 0xbd, 0x3d,
  0x12, 0x38, 0xf8, 0xbd, 0xf3, 0x87, 0x9e, 0x3e, 0xd5, 0x87, 0x61, 0x3d,
  0x06, 0x08, 0x4a, 0xbe, 0x1c, 0x1b, 0xa9, 0x3e, 0x06, 0x1f, 0x4c, 0x3d,
  0x37, 0x2f, 0x86, 0xbe, 0x00, 0xc6, 0xc4, 0x3d, 0x97, 0xb4, 0x68, 0xbc,
  0x48, 0xee, 0x03, 0xbd, 0xaa, 0xb4, 0xa3, 0x3d, 0x19, 0xb9, 0x88, 0x3e,
  0x8f, 0xcf, 0xeb, 0x3d, 0x60, 0xb2, 0xa9, 0x3b, 0x4a, 0x19, 0x61, 0x3e,
  0x3e, 0x3c, 0x23, 0x3a, 0xa2, 0x05, 0x6c, 0xbe, 0xdb, 0x1b, 0xf7, 0xbd,
  0xee, 0x79, 0x3b, 0x3d, 0xfe, 0xfe, 0x1a, 0xbd, 0xef, 0x73, 0xd9, 0x3d,
  0xba, 0x61, 0x32, 0xbe, 0x50, 0xf5, 0x0b, 0xbc, 0x69, 0xd0, 0xcd, 0xbe,
  0x9f, 0x91, 0x28, 0x3e, 0x6d, 0xba, 0x9d, 0xbd, 0x1a, 0x75, 0x97, 0x3d,
  0xd3, 0x10, 0x37, 0x3e, 0x51, 0x19, 0x67, 0x3e, 0xe6, 0x83, 0xd8, 0x3d,
  0x0f, 0xb1, 0x3d, 0xbc, 0x5c, 0xca, 0x69, 0xbe, 0x3e, 0xac, 0xb0, 0x3d,
  0xb6, 0x4a, 0xd0, 0xbd, 0xec, 0xb9, 0xb8, 0x3e, 0x8d, 0xca, 0x9e, 0xbc,
  0x1e, 0x9c, 0x75, 0x3e, 0x33, 0x4b, 0x46, 0xbe, 0xe9, 0xd5, 0xaf, 0x3e,
  0x4c, 0x91, 0xaa, 0xbd, 0x51, 0x43, 0xb1, 0xbd, 0xfe, 0xe4, 0x73, 0xbe,
  0x95, 0x20, 0x1d, 0xbe, 0xf3, 0xba, 0xd0, 0xbb, 0x73, 0x39, 0xe7, 0x3d,
  0x28, 0x3a, 0xd2, 0x3d, 0x03, 0xb5, 0xd0, 0xbd, 0x5e, 0x50, 0xd6, 0x3d,
  0x9b, 0xfa, 0x82, 0xbe, 0xfc, 0x28, 0x48, 0x3e, 0x41, 0x78, 0x37, 0xbe,
  0x06, 0x58, 0x23, 0x3e, 0x5c, 0xee, 0x2d, 0x3e, 0xff, 0x38, 0x86, 0xbe,
  0xe3, 0x2a, 0xb1, 0xbd, 0xb6, 0x25, 0x2d, 0xbe, 0xe6, 0x92, 0xab, 0x3d,
  0x61, 0xe2, 0xbf, 0xbd, 0xa3, 0x96, 0x91, 0xbe, 0x9e, 0xf7, 0x8b, 0xbd,
  0x4e, 0xec, 0x81, 0xbd, 0xd0, 0xca, 0xbe, 0x3d, 0x44, 0x2a, 0x95, 0x3e,
  0x23, 0x6d, 0xb4, 0xbe, 0xac, 0xce, 0x2d, 0x3e, 0x11, 0x96, 0x11, 0x3e,
  0x1e, 0x1c, 0x5d, 0x3d, 0x1e, 0x6c, 0x0a, 0x3b, 0x20, 0x60, 0xe4, 0xbd,
  0xb2, 0x1f, 0x23, 0x3e, 0x1b, 0x17, 0xb5, 0x3d, 0x4e, 0xa9, 0xa2, 0xbd,
  0xcb, 0x07, 0xe0, 0x3d, 0x5a, 0x15, 0x64, 0x3e, 0xe5, 0xfb, 0x8c, 0xbd,
  0x46, 0xc0, 0x8b, 0x3d, 0x09, 0xa6, 0xdc, 0xbd, 0x46, 0x3c, 0x33, 0xbe,
  0xa6, 0xac, 0xfd, 0xbd, 0x5e, 0xa0, 0xdf, 0x3d, 0x28, 0xc0, 0xc9, 0xbd,
  0x18, 0x27, 0x77, 0xbd, 0x75, 0x62, 0x18, 0x3e, 0xb6, 0x01, 0x97, 0x3e,
  0x31, 0x92, 0x80, 0x3e, 0xa8, 0x98, 0x7d, 0x3e, 0xfb, 0x1f, 0xfd, 0xbb,
  0x2f, 0xbc, 0x9d, 0x3d, 0x47, 0xcf, 0xf9, 0x3d, 0x56, 0x0b, 0x3b, 0xbe,
  0x20, 0x3c, 0x93, 0x3e, 0x79, 0xba, 0x96, 0xbd, 0x8f, 0x1a, 0x1f, 0xbc,
  0x8d, 0x26, 0x6d, 0xbe, 0x2d, 0x7a, 0x36, 0xbe, 0x0a, 0x07, 0xa7, 0xbe,
  0xd2, 0xa1, 0x4d, 0x3e, 0xae, 0x19, 0x5a, 0x3e, 0x79, 0x63, 0x16, 0xbd,
  0xe3, 0xde, 0xf4, 0xbd, 0x68, 0xbe, 0x37, 0x3d, 0x8b, 0x04, 0xbc, 0xbe,
  0x5a, 0x66, 0x01, 0x3d, 0x39, 0xb9, 0x97, 0x3e, 0xf3, 0x75, 0x0c, 0xbe,
  0x6a, 0x63, 0xb4, 0x3d, 0x70, 0x87, 0x8c, 0x3c, 0x71, 0x4f, 0xfc, 0x3c,
  0xeb, 0x55, 0xb4, 0x3e, 0x93, 0x0d, 0x42, 0xbe, 0x43, 0x5c, 0x90, 0xbe,
  0xa9, 0xaf, 0x26, 0x3e, 0x05, 0xee, 0x75, 0xbe, 0x91, 0xbc, 0x5c, 0x3e,
  0xf4, 0x43, 0xa0, 0x3d, 0xd4, 0x0c, 0x1a, 0xbe, 0x76, 0xb7, 0x2a, 0x3e,
  0x6c, 0x58, 0xba, 0x3d, 0x81, 0x89, 0x15, 0x3e, 0xde, 0x15, 0x09, 0xbe,
  0xb0, 0xe4, 0x06, 0x3e, 0xc3, 0xcd, 0x37, 0x3e, 0xf5, 0xd9, 0xb9, 0x3e,
  0x0e, 0x15, 0x47, 0x3e, 0xa2, 0x35, 0x66, 0xbe, 0xf2, 0xf2, 0xff, 0xff,
  0x04, 0x00, 0x00, 0x00, 0x80, 0x02, 0x00, 0x00, 0xdd, 0x5a, 0xa4, 0x3d,
  0x36, 0xf7, 0xd8, 0xbd, 0x66, 0x98, 0xe5, 0xbd, 0x32, 0x46, 0xe5, 0x3d,
  0x2d, 0x5d, 0x6b, 0xbe, 0x00, 0x5e, 0x2a, 0x3e, 0x64, 0xd5, 0xf3, 0x3d,
  0x5f, 0xa5, 0xe6, 0xbe, 0x74, 0x85, 0x32, 0xbe, 0x71, 0xdc, 0x76, 0x3e,
  0xe6, 0x0f, 0x5a, 0x3c, 0x09, 0x11, 0x92, 0xbd, 0x3a, 0xb4, 0xc1, 0x3e,
  0xd3, 0x33, 0x9b, 0x3e, 0xab, 0x51, 0x50, 0x3e, 0xe2, 0x44, 0x7c, 0x3e,
  0x4b, 0xb8, 0x40, 0xbe, 0xc1, 0xbd, 0xaf, 0x3d, 0x0b, 0x5f, 0xf2, 0xbd,
  0xf8, 0xd0, 0x95, 0xbe, 0xfd, 0x9a, 0x60, 0xbe, 0x24, 0xd6, 0xa6, 0xbd,
  0x07, 0x29, 0x8d, 0x3e, 0xb2, 0xf3, 0xdd, 0x3d, 0xa9, 0xb8, 0x92, 0xbe,
  0xf5, 0xff, 0x15, 0xbe, 0xd7, 0xfa, 0xa5, 0xbe, 0x51, 0xae, 0xb2, 0xbe,
  0x90, 0xc3, 0x84, 0x3e, 0xb5, 0x13, 0x44, 0x3d, 0x68, 0xce, 0x07, 0x3f,
  0x0e, 0xad, 0x0c, 0xbd, 0xf8, 0xd3, 0x86, 0x3d, 0xbe, 0xc1, 0xb2, 0x3e,
  0xdd, 0x95, 0x9d, 0xbe, 0xa1, 0x64, 0x85, 0xbc, 0x5a, 0x75, 0x52, 0x3d,
  0x38, 0xa5, 0xfd, 0x3c, 0x6f, 0x44, 0x06, 0xbe, 0x8f, 0xd8, 0x86, 0x3e,
  0x19, 0x4a, 0xf4, 0xbc, 0xe6, 0x19, 0x10, 0xbf, 0xfa, 0xfd, 0xa8, 0x3e,
  0xb7, 0xb1, 0x0d, 0x3e, 0x0a, 0xe6, 0x73, 0x3e, 0xee, 0x02, 0x0d, 0xbd,
  0xb7, 0x35, 0xae, 0x3e, 0xe2, 0x5c, 0x48, 0x3e, 0xf2, 0x04, 0x2a, 0x3d,
  0x01, 0xd3, 0xe4, 0x3c, 0xa6, 0xcb, 0x66, 0x3e, 0xfa, 0xc5, 0x93, 0x3d,
  0x82, 0x3b, 0xd4, 0xbe, 0x1d, 0x0a, 0x29, 0x3e, 0x8a, 0x90, 0x81, 0x3e,
  0xfe, 0x44, 0xca, 0xbd, 0xb1, 0xec, 0xbd, 0xbe, 0x32, 0x71, 0x30, 0x3e,
  0xb1, 0x0f, 0xe5, 0xbe, 0xef, 0x10, 0x8e, 0xbe, 0x09, 0xb5, 0x48, 0xbd,
  0x84, 0xe0, 0x84, 0xbe, 0x74, 0x2c, 0x5d, 0xbd, 0xbf, 0x82, 0x15, 0x3e,
  0x84, 0x89, 0x89, 0x3e, 0x2a, 0x6f, 0x35, 0xbe, 0xb5, 0xb1, 0x85, 0x3d,
  0xea, 0x15, 0xad, 0xbe, 0x48, 0xfe, 0x38, 0x3e, 0x7f, 0x1e, 0x7b, 0xbe,
  0xb6, 0xb8, 0xbd, 0x3e, 0x18, 0x7c, 0x74, 0x3e, 0xb8, 0x09, 0x2b, 0x3d,
  0x23, 0x51, 0x7c, 0xbd, 0x8e, 0x71, 0xdd, 0x3d, 0x17, 0xc7, 0x59, 0x3d,
  0x4c, 0x50, 0x9c, 0x3e, 0xe6, 0x86, 0x53, 0x3d, 0x6b, 0x22, 0x46, 0xbe,
  0xb7, 0x8c, 0xbb, 0x3e, 0xc0, 0xef, 0x76, 0xbe, 0x8d, 0xf7, 0x56, 0x3e,
  0x26, 0xa4, 0x82, 0xbe, 0x50, 0x05, 0xdd, 0x3e, 0x08, 0xa9, 0x97, 0x3e,
  0xc7, 0x17, 0x38, 0xbe, 0x89, 0xfa, 0xb5, 0xbe, 0xb7, 0x5f, 0xc0, 0xbc,
  0xc5, 0x53, 0x81, 0xbd, 0xbf, 0xf4, 0x69, 0x3e, 0xc1, 0x8f, 0xc6, 0xbe,
  0xa5, 0x9b, 0x69, 0x3e, 0x29, 0x64, 0x8f, 0xbe, 0xaa, 0x95, 0x35, 0x3d,
  0x72, 0xfc, 0xaf, 0x3d, 0xb4, 0x65, 0x5b, 0x3e, 0x5a, 0xd6, 0xad, 0x3e,
  0x76, 0xaa, 0x24, 0xbe, 0x01, 0x02, 0x2a, 0x3e, 0x62, 0x6d, 0x68, 0xbd,
  0x8e, 0xea, 0x83, 0x3e, 0xed, 0xb0, 0x84, 0x3e, 0xe7, 0x8b, 0xb6, 0xbd,
  0xd1, 0xed, 0x8e, 0xbe, 0xc1, 0x6d, 0x66, 0xbd, 0x42, 0xcb, 0x69, 0x3e,
  0x2f, 0x97, 0x86, 0xbd, 0xae, 0x61, 0x36, 0xbe, 0x47, 0xa5, 0xb7, 0xbe,
  0x56, 0x0a, 0xc8, 0xbd, 0x82, 0xac, 0xa8, 0xbe, 0x87, 0x13, 0x16, 0xbd,
  0xe0, 0x2a, 0x2a, 0xbe, 0x6e, 0xa9, 0xb6, 0x3e, 0xb9, 0x5b, 0x55, 0x3e,
  0x96, 0x32, 0x8e, 0xbd, 0xae, 0x16, 0x47, 0x3e, 0x81, 0xf8, 0x8e, 0x3b,
  0xea, 0xd0, 0x0e, 0xbc, 0xb5, 0x27, 0x8c, 0xbe, 0x6d, 0x79, 0x0b, 0xbe,
  0x34, 0x0e, 0x90, 0xbd, 0x37, 0x57, 0x92, 0xbe, 0x18, 0x10, 0x4d, 0x3d,
  0x34, 0x1c, 0x12, 0xbf, 0xcd, 0x1c, 0x34, 0xbd, 0x7a, 0xe6, 0x64, 0x3e,
  0xcb, 0x2a, 0x49, 0x3d, 0xc4, 0x2b, 0x2f, 0x3e, 0x05, 0xef, 0xc3, 0xbd,
  0xcd, 0x14, 0x26, 0x3e, 0x9b, 0xc5, 0xcf, 0x3e, 0x23, 0x07, 0x85, 0xbe,
  0xac, 0x3b, 0x8b, 0x3c, 0xe7, 0x68, 0x5c, 0x3d, 0xfc, 0xff, 0x97, 0xbe,
  0x31, 0xd8, 0x13, 0x3e, 0x32, 0x93, 0xa1, 0xbe, 0x07, 0x78, 0x8e, 0xbd,
  0x01, 0x33, 0xd2, 0x3d, 0xea, 0x38, 0x09, 0x3e, 0x3d, 0x17, 0xe5, 0x3c,
  0x95, 0x43, 0xaa, 0xbe, 0x03, 0x9f, 0xb4, 0xbe, 0xfa, 0x7a, 0xc4, 0xbd,
  0x89, 0x92, 0x45, 0xbe, 0x99, 0xea, 0x62, 0xba, 0xcf, 0x8d, 0xa4, 0xbe,
  0xa4, 0xfb, 0xdd, 0xbe, 0x81, 0x9e, 0xfc, 0x3d, 0xdd, 0x97, 0xaa, 0xbe,
  0x69, 0xed, 0xc5, 0x3e, 0x80, 0x6a, 0x34, 0xbd, 0x1a, 0x32, 0x8c, 0x3e,
  0x22, 0x7d, 0x62, 0x3e, 0x14, 0x79, 0x02, 0xbe, 0xcb, 0x78, 0x54, 0xbe,
  0xb8, 0x01, 0x3e, 0x3e, 0xff, 0x1d, 0xbd, 0xbe, 0x2b, 0xcc, 0x31, 0x3e,
  0x7e, 0xf5, 0xff, 0xff, 0x04, 0x00, 0x00, 0x00, 0x60, 0x09, 0x00, 0x00,
  0xf8, 0x28, 0x6a, 0x3c, 0x9f, 0x62, 0x83, 0xbe, 0xf1, 0xd1, 0x3f, 0xbe,
  0x52, 0x73, 0x77, 0xbe, 0xeb, 0x40, 0x32, 0xbd, 0xa2, 0x0a, 0x29, 0xbe,
  0x2e, 0x20, 0x1b, 0xbe, 0x6b, 0x6d, 0x0b, 0xbe, 0xe0, 0x78, 0x9f, 0x3d,
  0xfb, 0x14, 0x06, 0x3d, 0x9f, 0x52, 0xad, 0xbe, 0x90, 0xef, 0x84, 0x3e,
  0xc4, 0xd7, 0x10, 0xbe, 0xea, 0x20, 0x26, 0x3b, 0x0d, 0xdd, 0x8b, 0x3d,
  0xf1, 0xa1, 0x99, 0xbe, 0xe0, 0x0b, 0x83, 0xbe, 0x5d, 0x99, 0x9c, 0x3e,
  0x98, 0x65, 0x2f, 0x3d, 0xed, 0x09, 0x15, 0x3d, 0x06, 0xeb, 0x4a, 0x3e,
  0xb8, 0xeb, 0xa5, 0xbd, 0xf7, 0xf5, 0x31, 0x3e, 0x8e, 0x37, 0xc3, 0xbd,
  0x65, 0x3e, 0x56, 0xbd, 0x4b, 0xf2, 0xf2, 0x3c, 0x90, 0xb9, 0x17, 0x3e,
  0x96, 0x4e, 0x06, 0x3e, 0x75, 0x68, 0x7e, 0xbe, 0x63, 0x71, 0x2e, 0x3d,
  0xee, 0xf9, 0xab, 0xbd, 0x29, 0xc2, 0xdf, 0x3c, 0x91, 0xf3, 0x57, 0xbe,
  0x8a, 0x90, 0x88, 0xbe, 0x7a, 0x38, 0xf5, 0xbd, 0x9a, 0x87, 0xf4, 0x3d,
  0x12, 0xd7, 0x90, 0xbe, 0x72, 0x40, 0x05, 0x3d, 0x9f, 0x28, 0x32, 0xbe,
  0x6c, 0xb5, 0x23, 0xbd, 0x70, 0x06, 0x50, 0xbe, 0x83, 0x10, 0xec, 0x3d,
  0x74, 0x61, 0x85, 0x3e, 0xb5, 0x26, 0xb1, 0xbd, 0x72, 0xe9, 0xd0, 0xbd,
  0x3e, 0xbd, 0xaf, 0xbc, 0xad, 0x45, 0x95, 0xbd, 0x75, 0xc1, 0xa1, 0x3d,
  0x08, 0x09, 0xec, 0xbb, 0xfe, 0x66, 0xe1, 0x3d, 0x8c, 0x63, 0x03, 0xbd,
  0x18, 0xa1, 0x78, 0x3e, 0x9c, 0x2d, 0x81, 0xbd, 0xa9, 0xeb, 0x2e, 0x3e,
  0x6d, 0x3a, 0x75, 0xbe, 0x65, 0x2e, 0x1f, 0xbe, 0x08, 0x7d, 0x87, 0x3e,
  0xa1, 0xb3, 0xe8, 0xbd, 0xe2, 0x6a, 0xaa, 0xbd, 0xdf, 0x8d, 0xc1, 0x3d,
  0x51, 0x23, 0x00, 0xbd, 0xf8, 0xf6, 0x35, 0x3e, 0x28, 0x6d, 0xdf, 0xbd,
  0x43, 0x8b, 0x68, 0xbe, 0x83, 0x53, 0x1f, 0xbe, 0x66, 0xd3, 0x43, 0x3e,
  0x86, 0x29, 0x1f, 0x3e, 0x9d, 0x77, 0xb1, 0xbe, 0xdc, 0xcd, 0x02, 0x3e,
  0x01, 0x79, 0x96, 0xbd, 0xa2, 0xad, 0x1d, 0x3e, 0xe5, 0x02, 0xfb, 0xbd,
  0xd3, 0x3b, 0x09, 0xbe, 0xfa, 0x1f, 0x00, 0x3c, 0xe2, 0xbb, 0x85, 0x3d,
  0x6e, 0x1d, 0x05, 0x3e, 0xd4, 0x69, 0x77, 0xbd, 0x7f, 0xf0, 0xae, 0x3d,
  0xef, 0xa4, 0x61, 0xbc, 0x29, 0xcd, 0x4b, 0xbd, 0xe3, 0xcd, 0x88, 0xbe,
  0x6f, 0x22, 0x22, 0x3d, 0x97, 0xb0, 0xe3, 0xbd, 0x0b, 0x96, 0x3a, 0x3c,
  0xfe, 0xb2, 0xdb, 0x3d, 0x8d, 0xac, 0x70, 0xbe, 0xa1, 0xed, 0x3b, 0xbd,
  0x24, 0xc3, 0x88, 0x3d, 0x22, 0xc7, 0x5b, 0x3d, 0xa9, 0xe0, 0x11, 0x3c,
  0x8f, 0xce, 0x64, 0x3c, 0x33, 0xcf, 0xb5, 0x3c, 0xe0, 0x73, 0x32, 0xbd,
  0x9e, 0xab, 0xe7, 0x3d, 0x19, 0x7f, 0x9d, 0xbd, 0x3d, 0xa5, 0xf5, 0x3d,
  0xc1, 0x00, 0x40, 0x3e, 0x2e, 0x4d, 0x9b, 0x3d, 0x19, 0x20, 0x93, 0x3c,
  0x42, 0x50, 0x6e, 0x3e, 0x68, 0x07, 0x0c, 0xbe, 0x43, 0x0b, 0x3a, 0xbe,
  0xe8, 0x9c, 0x49, 0xbd, 0xce, 0x87, 0xbc, 0x3d, 0x95, 0xa1, 0xc3, 0xbd,
  0x3a, 0x8b, 0x5e, 0xbe, 0xab, 0xe3, 0x23, 0xbe, 0x27, 0x75, 0xe4, 0xbd,
  0x0a, 0xc2, 0x07, 0xbe, 0x5d, 0x90, 0xa6, 0xbd, 0xaa, 0x4c, 0xb0, 0xbe,
  0x85, 0x34, 0x45, 0xbe, 0x9b, 0xb1, 0x63, 0xbe, 0x0f, 0xb6, 0x87, 0xbe,
  0x49, 0x16, 0x92, 0xbc, 0x5f, 0xfb, 0xf1, 0x3c, 0xb9, 0x39, 0xfb, 0xbd,
  0x81, 0xdb, 0x16, 0x3e, 0x32, 0x6f, 0x3d, 0xbe, 0x8c, 0xc9, 0x29, 0x3d,
  0xfc, 0x31, 0x46, 0x3e, 0x5b, 0x64, 0x59, 0x3d, 0xb3, 0x0c, 0x40, 0x3d,
  0xbb, 0x54, 0x94, 0xbd, 0x0c, 0x5e, 0x54, 0x3e, 0x3a, 0xd3, 0xea, 0x3c,
  0xff, 0x1d, 0x63, 0xbd, 0x3c, 0xe1, 0xee, 0xbc, 0x92, 0x63, 0x17, 0xbe,
  0x4a, 0xef, 0x81, 0xbd, 0xeb, 0x5c, 0xc0, 0x3b, 0xd6, 0x5f, 0x7b, 0xbb,
  0xdc, 0x9c, 0x28, 0xbe, 0x81, 0xe5, 0xb5, 0xbd, 0xb3, 0x42, 0x7b, 0xbe,
  0x99, 0x27, 0xf1, 0x3c, 0x2b, 0x4a, 0xcc, 0xbd, 0x92, 0x22, 0x5b, 0xbd,
  0x77, 0x78, 0x0c, 0xbd, 0xb9, 0x26, 0x30, 0x3d, 0xb6, 0x84, 0xa9, 0xbd,
  0x79, 0x06, 0x54, 0xbe, 0xf6, 0x78, 0xe3, 0x3c, 0x66, 0x86, 0x73, 0x3d,
  0x62, 0xbf, 0xb8, 0xbd, 0x33, 0x40, 0xa5, 0xbd, 0x4c, 0x99, 0x76, 0xbd,
  0x28, 0x99, 0xff, 0x3d, 0xbd, 0xa6, 0x6f, 0x3e, 0x14, 0xff, 0x65, 0x3d,
  0x8a, 0xd5, 0x2f, 0xbe, 0xb5, 0x40, 0x00, 0xbe, 0x0e, 0xe9, 0x3a, 0xbd,
  0x67, 0x6a, 0x07, 0x3e, 0xa1, 0x98, 0x8c, 0x3d, 0x25, 0x27, 0x9b, 0xbd,
  0x32, 0xe4, 0xa8, 0xbd, 0x0b, 0x00, 0xc9, 0x3d, 0x3c, 0xed, 0x54, 0x3e,
  0xb8, 0x57, 0x30, 0x3e, 0x46, 0xd8, 0x81, 0xbd, 0x8e, 0xaf, 0x34, 0xbe,
  0x99, 0x9b, 0xf7, 0x3d, 0xa9, 0x0a, 0xa4, 0x3d, 0x2f, 0x00, 0x0a, 0x3e,
  0x8c, 0x8c, 0x69, 0x3e, 0x96, 0xf8, 0x87, 0x3d, 0xde, 0xb7, 0x23, 0x3e,
  0xd4, 0x50, 0x5c, 0xbe, 0xbb, 0xb3, 0x0b, 0xbe, 0x81, 0xdd, 0xf2, 0xbc,
  0x3a, 0x56, 0x27, 0xbe, 0x7c, 0xe6, 0x85, 0x3e, 0x85, 0x90, 0x94, 0xbd,
  0x87, 0xba, 0xf4, 0x3d, 0x75, 0x7c, 0x74, 0x3e, 0x50, 0xd4, 0x29, 0x3d,
  0x8d, 0x08, 0x4b, 0xbd, 0x2a, 0xe0, 0x94, 0xbd, 0xcf, 0xc5, 0x6f, 0xbd,
  0xd2, 0xe5, 0x05, 0x3d, 0xd9, 0x14, 0xa2, 0x3d, 0x38, 0x53, 0x85, 0xbd,
  0x79, 0x22, 0x9a, 0x3d, 0xe7, 0xcc, 0x27, 0x3d, 0x29, 0x25, 0x5b, 0xbe,
  0x65, 0x1f, 0x2d, 0x3d, 0x94, 0xb2, 0x59, 0xbc, 0x4e, 0xd1, 0xe8, 0x3b,
  0xc9, 0x68, 0x8c, 0xbe, 0x58, 0x01, 0x62, 0xbd, 0x38, 0x81, 0x88, 0xbe,
  0xc4, 0x74, 0x38, 0x3d, 0x08, 0x3e, 0xe3, 0x3d, 0xb7, 0x71, 0x09, 0xbe,
  0x25, 0x1e, 0x3f, 0x3e, 0x73, 0x31, 0x57, 0xbe, 0x18, 0x85, 0x09, 0xbe,
  0x1f, 0x45, 0x91, 0x3e, 0xeb, 0xd0, 0xa1, 0x3d, 0x28, 0x34, 0xba, 0x3d,
  0x40, 0x2e, 0x1e, 0x3c, 0xbe, 0x2a, 0x68, 0x3e, 0xfa, 0xdf, 0x13, 0x3e,
  0xdd, 0xbc, 0x4f, 0x3e, 0x1c, 0x4e, 0xad, 0xbd, 0x09, 0x27, 0x40, 0xbc,
  0x4e, 0x24, 0x29, 0xbd, 0x78, 0xc9, 0x77, 0xbe, 0xef, 0x99, 0x3d, 0xbe,
  0x7c, 0x33, 0x0b, 0x3d, 0x2e, 0xed, 0x20, 0x3c, 0x56, 0x2e, 0x18, 0xbe,
  0x11, 0xf6, 0x2f, 0xbd, 0x49, 0x0d, 0xcb, 0xbb, 0xda, 0xd1, 0x5c, 0x3e,
  0xec, 0x63, 0x5d, 0x3d, 0x56, 0x86, 0xe4, 0x3d, 0x2c, 0x2d, 0xd4, 0x3d,
  0x3b, 0xcd, 0x82, 0xbc, 0x83, 0x60, 0xd8, 0xbd, 0x66, 0x14, 0x68, 0x3e,
  0x5a, 0x39, 0x7c, 0x3e, 0x2f, 0xa7, 0x3e, 0x3e, 0xf1, 0xa0, 0x8f, 0xbe,
  0xc4, 0x10, 0x49, 0xbd, 0xa7, 0x04, 0x04, 0xbe, 0x0d, 0x46, 0x66, 0xbc,
  0x9f, 0x59, 0xe1, 0xbd, 0xb5, 0x1f, 0x5e, 0x3e, 0xba, 0x7c, 0x40, 0x3e,
  0x16, 0x05, 0x53, 0x3e, 0xb4, 0x31, 0xc2, 0x3d, 0xf2, 0x16, 0x48, 0x3d,
  0x33, 0xc3, 0xa4, 0x3d, 0x2d, 0x19, 0x3c, 0x3e, 0xcd, 0x0f, 0x20, 0xbe,
  0xff, 0xb0, 0x36, 0x3e, 0x30, 0x8c, 0x1e, 0x3e, 0x16, 0x98, 0xf5, 0x3c,
  0xed, 0x33, 0x1a, 0x3e, 0x11, 0x6b, 0x0b, 0x3e, 0xf7, 0x3b, 0x1f, 0xbe,
  0xc3, 0xe9, 0xa2, 0x3e, 0xf8, 0xf0, 0xe4, 0xba, 0x42, 0x11, 0x36, 0x3e,
  0x6b, 0x7e, 0x54, 0x3b, 0x8d, 0x1a, 0x67, 0x3d, 0xce, 0x5a, 0xc6, 0xbd,
  0x02, 0x08, 0xc4, 0xbd, 0x1e, 0x29, 0xf3, 0x3d, 0x16, 0xd0, 0x22, 0xbe,
  0x53, 0xf0, 0xf8, 0xbd, 0xf2, 0xcb, 0x8c, 0xbe, 0x1b, 0xe5, 0x7a, 0x3c,
  0x14, 0x47, 0xcb, 0xbd, 0xbb, 0x3f, 0xd6, 0x3d, 0x83, 0x40, 0x15, 0x3e,
  0x9b, 0x74, 0x9f, 0x3d, 0x0f, 0x16, 0x11, 0xb9, 0xc4, 0x50, 0xda, 0xbd,
  0x6c, 0xca, 0xbb, 0xbd, 0x4c, 0x16, 0xf9, 0xbc, 0x4c, 0xda, 0x2f, 0xbe,
  0xe6, 0x58, 0xc2, 0x3d, 0xd7, 0xab, 0xf6, 0x3d, 0x14, 0xe4, 0xb8, 0xbd,
  0xd3, 0x5c, 0xa4, 0x3b, 0xe9, 0xdc, 0x59, 0x3d, 0x56, 0x57, 0xe7, 0xbd,
  0xe8, 0x44, 0x3f, 0x3d, 0xc6, 0x8b, 0xcc, 0x3c, 0xdd, 0xf1, 0xbe, 0xbd,
  0x3a, 0x9d, 0xd6, 0x3d, 0x2f, 0xf2, 0x49, 0x3d, 0x26, 0xad, 0x1c, 0x3e,
  0x97, 0x69, 0x0b, 0x3e, 0x71, 0xb7, 0x6e, 0xbd, 0x8a, 0xc1, 0x7b, 0x3e,
  0xe2, 0xc9, 0xfc, 0xbd, 0xb5, 0x81, 0x8d, 0x3c, 0xe6, 0x4c, 0x9e, 0xbc,
  0x22, 0x12, 0x8f, 0xbd, 0x22, 0xda, 0xb1, 0xbd, 0xc4, 0x56, 0xc2, 0xbd,
  0x7e, 0xa2, 0xc4, 0x3c, 0xd4, 0xbb, 0x84, 0xbd, 0x7b, 0x61, 0x43, 0xbe,
  0x44, 0xc7, 0x17, 0x3e, 0xfd, 0x85, 0xfd, 0xbd, 0xd3, 0xe8, 0x04, 0xbd,
  0x16, 0x7a, 0x19, 0xbe, 0xc1, 0x0b, 0x28, 0x3b, 0xb0, 0xed, 0xae, 0xbd,
  0x4d, 0x5d, 0xfd, 0x3d, 0x59, 0xb0, 0x2f, 0xbd, 0x27, 0x01, 0xac, 0xbd,
  0x2a, 0xb1, 0x44, 0xbd, 0xb7, 0xaf, 0xba, 0xbd, 0x8d, 0xd8, 0xdd, 0xbd,
  0xe5, 0x73, 0x3c, 0xbe, 0x79, 0xe9, 0x21, 0x3e, 0x09, 0xd4, 0x91, 0xbc,
  0xda, 0xd4, 0xe9, 0xbd, 0xd1, 0x03, 0xa4, 0x3d, 0x9b, 0xb3, 0x8d, 0x3c,
  0x86, 0xb8, 0xac, 0xbe, 0x86, 0x65, 0x00, 0x3e, 0x1b, 0x1e, 0xef, 0x3d,
  0x6b, 0x36, 0x2f, 0xbe, 0xd0, 0xf3, 0x98, 0x3d, 0x03, 0x7d, 0xde, 0x3d,
  0xf7, 0x10, 0x5a, 0xbe, 0xd2, 0x94, 0xc6, 0x3c, 0x8a, 0x2e, 0x29, 0x3e,
  0x1f, 0x01, 0x40, 0xbe, 0x8b, 0x61, 0x46, 0xbe, 0x5f, 0x14, 0x80, 0xbe,
  0xfa, 0x80, 0xdd, 0x3c, 0xb3, 0x63, 0x70, 0x3d, 0x4e, 0xb9, 0x8e, 0xbe,
  0x9c, 0x82, 0x29, 0x3e, 0x03, 0x80, 0xea, 0xba, 0x78, 0xed, 0x05, 0x3e,
  0x97, 0xc5, 0x17, 0x3e, 0x15, 0xc7, 0x6e, 0x3e, 0xd5, 0x59, 0x67, 0xbe,
  0x4e, 0x40, 0x67, 0xbe, 0x5d, 0x4c, 0x09, 0xbe, 0x31, 0x96, 0x39, 0xbd,
  0x57, 0x52, 0xc6, 0xbd, 0x06, 0x2e, 0x67, 0x3e, 0xf1, 0x25, 0xa0, 0xbe,
  0xa3, 0xad, 0x51, 0x3d, 0xf1, 0xd9, 0xbb, 0xbd, 0x12, 0xe4, 0x03, 0x3e,
  0xcb, 0x61, 0x5b, 0x3e, 0xae, 0x22, 0xd9, 0xbc, 0x8a, 0x9c, 0x33, 0xbe,
  0x04, 0x01, 0xdd, 0xbd, 0xdb, 0x60, 0xa6, 0xbd, 0x68, 0x69, 0x33, 0xbe,
  0x92, 0xf3, 0xd1, 0xbd, 0x1c, 0xbc, 0x2c, 0x3e, 0x21, 0xa0, 0x53, 0xbe,
  0x68, 0x50, 0x05, 0x3e, 0xf5, 0x9a, 0x05, 0xbe, 0xf2, 0xb4, 0xa6, 0xbd,
  0x7f, 0x52, 0x55, 0xbe, 0xce, 0x83, 0x65, 0x3c, 0xfd, 0xdb, 0x07, 0xbc,
  0xf1, 0xa8, 0x62, 0x3e, 0xf5, 0x79, 0x0a, 0xbe, 0xe0, 0xde, 0x1a, 0x3e,
  0x5e, 0x36, 0x35, 0xbe, 0x06, 0x16, 0x9b, 0xbd, 0x44, 0xa6, 0x99, 0xbd,
  0x6a, 0xee, 0x01, 0xbe, 0x78, 0xdc, 0x64, 0x3d, 0x93, 0x25, 0x26, 0xbe,
  0xc5, 0x82, 0xc0, 0xbd, 0x54, 0xdc, 0xf5, 0xbc, 0x52, 0xbf, 0xaa, 0xbe,
  0x0d, 0xc5, 0x28, 0xbd, 0x05, 0xf3, 0x47, 0xbe, 0xd9, 0xc5, 0x13, 0xbe,
  0x55, 0xe6, 0x70, 0xbe, 0xb2, 0xe6, 0x66, 0xbe, 0xf1, 0xb0, 0x15, 0xbe,
  0xd2, 0x7d, 0x1c, 0xbe, 0xcf, 0x41, 0x13, 0x3e, 0x3d, 0x83, 0x95, 0xbd,
  0xe8, 0x35, 0x63, 0xbe, 0xf9, 0x5d, 0xe6, 0x3d, 0x31, 0x29, 0xa3, 0xbe,
  0xfa, 0x70, 0x82, 0xbd, 0x60, 0xa1, 0xc6, 0xbc, 0x16, 0x99, 0x87, 0x3d,
  0x85, 0x76, 0x85, 0x3d, 0x0c, 0xff, 0x79, 0x3e, 0x9c, 0xfb, 0x82, 0xbd,
  0x14, 0xc2, 0x2e, 0x3e, 0x97, 0xc6, 0x2f, 0x3d, 0x92, 0x78, 0xb2, 0xbd,
  0x3e, 0xae, 0x11, 0x3d, 0x92, 0x03, 0x2e, 0xbe, 0xa0, 0x83, 0x13, 0xbe,
  0xc8, 0xa2, 0x03, 0xbd, 0x5a, 0x4a, 0x12, 0x3d, 0xce, 0x00, 0x60, 0xbe,
  0xdd, 0x52, 0xff, 0xbd, 0x9e, 0xd5, 0x01, 0xbd, 0xc4, 0xef, 0x6c, 0xbd,
  0xdb, 0x94, 0x67, 0x3c, 0x29, 0x18, 0xec, 0x3c, 0x2f, 0x23, 0x2e, 0x3e,
  0x1f, 0xdb, 0xf9, 0x3c, 0xa6, 0xa2, 0x6a, 0xbd, 0x49, 0x21, 0x37, 0xbe,
  0xe3, 0xb2, 0x17, 0xbe, 0x29, 0x2a, 0xde, 0xbc, 0xaf, 0x91, 0x94, 0xbe,
  0x23, 0x18, 0xe5, 0x3a, 0x2c, 0xca, 0x9c, 0x3d, 0xb1, 0xe4, 0x70, 0xbb,
  0x51, 0x43, 0xc1, 0xbc, 0x44, 0x24, 0x98, 0xbe, 0x18, 0x15, 0x07, 0x3d,
  0xbd, 0x3d, 0x22, 0xbb, 0x0b, 0xb8, 0x5c, 0xbe, 0x92, 0x22, 0x15, 0x3d,
  0xa5, 0xbd, 0xb4, 0x3d, 0x11, 0xc7, 0xae, 0xbc, 0x64, 0x4b, 0xcd, 0xbc,
  0xa7, 0x9a, 0x85, 0x3d, 0xe4, 0x7c, 0xc6, 0x3d, 0x6e, 0x0e, 0xa5, 0xba,
  0x97, 0x89, 0x95, 0x3c, 0xab, 0xe8, 0x7c, 0xbd, 0xa2, 0x2b, 0xfa, 0x3d,
  0x1a, 0x57, 0x7a, 0x3c, 0x6b, 0xe8, 0x83, 0xbe, 0x04, 0x03, 0x00, 0xbe,
  0x52, 0xa4, 0x12, 0xbd, 0x74, 0x42, 0x17, 0x3d, 0x2b, 0x61, 0x73, 0xbd,
  0x63, 0x30, 0x47, 0xbe, 0xc8, 0x7a, 0x3d, 0x3d, 0x07, 0x61, 0x24, 0xbe,
  0xae, 0x56, 0x24, 0x3d, 0x53, 0xa0, 0xe4, 0x3c, 0xe4, 0x23, 0x11, 0xbe,
  0xd1, 0x09, 0xaf, 0xbc, 0x71, 0x00, 0xe7, 0xbd, 0x8b, 0xf7, 0x54, 0x3d,
  0x13, 0xa2, 0x06, 0xbe, 0x71, 0xff, 0x14, 0x3e, 0x70, 0xe1, 0x7a, 0x3c,
  0x88, 0x63, 0xae, 0x3d, 0x66, 0xe5, 0x43, 0xbe, 0x46, 0xe7, 0x6a, 0xbd,
  0x95, 0xbf, 0x49, 0xbd, 0x52, 0x50, 0x01, 0x3c, 0x5e, 0x30, 0xac, 0x3c,
  0x80, 0x9c, 0x1f, 0xbe, 0x0b, 0x03, 0x26, 0x3e, 0x78, 0x04, 0x7b, 0x3e,
  0xc9, 0x13, 0x95, 0xbe, 0x5c, 0x66, 0x7a, 0x3c, 0x51, 0xef, 0xca, 0x3d,
  0xdf, 0x05, 0xb4, 0x3d, 0x75, 0x8e, 0x6b, 0xbe, 0x87, 0x52, 0x7a, 0xb9,
  0x81, 0xae, 0x7c, 0xbe, 0x62, 0x19, 0xa3, 0xbb, 0xb4, 0xe7, 0x41, 0xbe,
  0x2c, 0x12, 0xe5, 0xbd, 0x4c, 0x08, 0x9e, 0xbc, 0x0f, 0x38, 0xf9, 0xbd,
  0x49, 0x14, 0xaa, 0xbd, 0x6f, 0x7d, 0x29, 0xbd, 0x91, 0x26, 0xb5, 0x3d,
  0xaa, 0xfb, 0xc4, 0xba, 0x6c, 0x80, 0xa8, 0xbd, 0x21, 0x16, 0x9d, 0xbc,
  0xc2, 0x73, 0xdb, 0xbd, 0xd0, 0x55, 0xc5, 0x3c, 0x0d, 0xa6, 0xdb, 0x3d,
  0x8e, 0xd8, 0xc3, 0x3c, 0xd1, 0x03, 0x0d, 0x3d, 0xab, 0x7b, 0x12, 0x3e,
  0xff, 0x5b, 0x56, 0xbe, 0x4a, 0x62, 0x4f, 0xbd, 0xb3, 0x30, 0x6c, 0x3e,
  0xfa, 0x16, 0x48, 0xbe, 0xe7, 0x79, 0x95, 0xbc, 0x74, 0x90, 0xa9, 0xbd,
  0x62, 0x3f, 0x40, 0x3d, 0xbf, 0x66, 0x45, 0xbe, 0x13, 0xa3, 0x72, 0x3e,
  0xcf, 0x14, 0xf8, 0xbd, 0x1d, 0x31, 0x0b, 0x3e, 0xf8, 0x80, 0xf4, 0x3d,
  0xcf, 0xc9, 0xe1, 0xbd, 0x37, 0x92, 0xae, 0x3d, 0x3b, 0xc9, 0xab, 0xbd,
  0x11, 0xb5, 0xaf, 0x3d, 0x93, 0x00, 0x91, 0xbe, 0x78, 0x88, 0x07, 0xbd,
  0xa3, 0xdd, 0xde, 0x3d, 0xec, 0x96, 0x96, 0xbe, 0x28, 0x9e, 0xea, 0xbd,
  0xd1, 0x31, 0x79, 0xbe, 0x31, 0x71, 0x03, 0x3e, 0x1b, 0x93, 0xf1, 0xbd,
  0xa0, 0x81, 0xf4, 0xbd, 0x1a, 0x43, 0xc7, 0xbd, 0x29, 0x52, 0x5e, 0x3d,
  0x53, 0xc2, 0x79, 0x3e, 0x62, 0x1d, 0x52, 0xbd, 0x3f, 0xd8, 0x5c, 0x3e,
  0xfd, 0x86, 0xb4, 0x3d, 0x2a, 0xcc, 0x87, 0xbd, 0x15, 0x96, 0x5a, 0x3d,
  0x0d, 0xe9, 0x4d, 0xbd, 0x2d, 0x15, 0x42, 0x3e, 0x85, 0x71, 0x2c, 0xbd,
  0xef, 0x12, 0x2d, 0xbe, 0x63, 0x66, 0xda, 0x3d, 0x4f, 0xb8, 0xfe, 0xbc,
  0x9a, 0x42, 0x48, 0xbe, 0x4f, 0x86, 0x17, 0x3e, 0x4f, 0xbf, 0xae, 0x3e,
  0xd5, 0x82, 0x46, 0xbe, 0xde, 0x5a, 0x0d, 0x3e, 0xbb, 0x30, 0x94, 0x3e,
  0x6f, 0x4f, 0x1c, 0xbe, 0x06, 0xd6, 0x11, 0x3c, 0x84, 0x03, 0x09, 0x3c,
  0x30, 0x22, 0x69, 0xbe, 0x7c, 0x7a, 0x99, 0xbd, 0x8d, 0xd3, 0x09, 0x3e,
  0x65, 0x61, 0x6a, 0x3e, 0xd1, 0xd4, 0x3a, 0xbc, 0x00, 0x44, 0xdc, 0x3c,
  0xff, 0xf5, 0x33, 0xbd, 0x50, 0x2e, 0x70, 0xbc, 0x20, 0x81, 0x91, 0x3d,
  0x89, 0x60, 0x3e, 0xbe, 0x91, 0xbb, 0xeb, 0xbc, 0x42, 0xb1, 0x49, 0xbe,
  0x68, 0x3b, 0x2b, 0x3e, 0xac, 0x44, 0x82, 0x3c, 0x64, 0xee, 0x7e, 0xbe,
  0xda, 0x23, 0x22, 0xbe, 0x7f, 0x5b, 0x51, 0xbd, 0xcc, 0x47, 0x34, 0xbe,
  0xba, 0xdc, 0x27, 0xbe, 0x71, 0xea, 0x9d, 0x3d, 0xc2, 0x3b, 0x07, 0x3d,
  0xd6, 0x89, 0xef, 0xbd, 0x31, 0x51, 0xcc, 0xbd, 0x3c, 0xfa, 0x76, 0x3e,
  0x38, 0x80, 0xe6, 0x3d, 0x04, 0x46, 0x2f, 0x3e, 0x55, 0x2f, 0xdd, 0x3b,
  0x55, 0xc5, 0xf6, 0x3d, 0x59, 0x6c, 0xab, 0x3d, 0x0f, 0x62, 0x2b, 0xbe,
  0x4c, 0xaf, 0x02, 0xbe, 0x47, 0x7e, 0x1f, 0x3e, 0x69, 0x74, 0xac, 0xbd,
  0xa1, 0x7c, 0x9d, 0x3d, 0x68, 0x3e, 0xf7, 0x3c, 0x42, 0x6e, 0x8a, 0xbe,
  0xc3, 0xdb, 0xdd, 0x3c, 0xb1, 0xff, 0xc0, 0xbc, 0xb0, 0xbb, 0xd4, 0x3d,
  0xf8, 0x7e, 0x3b, 0xbe, 0x2e, 0x35, 0x4b, 0xbe, 0x35, 0x5f, 0x60, 0xbe,
  0xc8, 0x0d, 0x07, 0x3e, 0xd4, 0xa7, 0xd4, 0xbd, 0x47, 0xff, 0xba, 0xbc,
  0x45, 0x36, 0xd5, 0xbd, 0x3a, 0xea, 0xe8, 0xbd, 0xc3, 0x0c, 0x81, 0xbd,
  0x61, 0x2d, 0x85, 0xbe, 0x9b, 0x2b, 0x03, 0x3e, 0x17, 0x91, 0xb5, 0x3d,
  0x79, 0x28, 0x19, 0xbd, 0x62, 0x27, 0xab, 0x3d, 0x5b, 0x3e, 0x0b, 0xbe,
  0xe3, 0xab, 0xf3, 0x3d, 0xa9, 0x2c, 0xbd, 0xbc, 0xdf, 0xc7, 0xa4, 0x3e,
  0x28, 0x5f, 0x95, 0x3d, 0xae, 0x24, 0xf5, 0x3d, 0x4a, 0x11, 0x2e, 0x3e,
  0x40, 0x65, 0x11, 0x3e, 0xdc, 0xb0, 0x0a, 0x3e, 0x52, 0xfd, 0x55, 0x3e,
  0x53, 0x5c, 0x0c, 0x3e, 0x22, 0x98, 0x01, 0xbe, 0x24, 0xe3, 0x3c, 0x3d,
  0xcc, 0x65, 0x13, 0xba, 0x8c, 0xc6, 0x9c, 0x3d, 0x4f, 0xb3, 0x4e, 0xbe,
  0x77, 0x81, 0xa7, 0xbd, 0xf4, 0xf6, 0x5a, 0xbe, 0x7a, 0x1f, 0x5c, 0x3e,
  0x50, 0x2c, 0x4c, 0x3e, 0xe2, 0xd6, 0x08, 0xbc, 0x55, 0xae, 0x2e, 0x3e,
  0xc8, 0x45, 0x08, 0xbd, 0x3f, 0xcb, 0x51, 0x3e, 0xb0, 0x76, 0x1c, 0xbe,
  0x17, 0x7e, 0x6d, 0x3e, 0xb8, 0xdd, 0xee, 0xbd, 0x79, 0x59, 0x43, 0x3e,
  0xea, 0xfe, 0xff, 0xff, 0x04, 0x00, 0x00, 0x00, 0x08, 0x00, 0x00, 0x00,
  0xff, 0xff, 0xff, 0xff, 0x4b, 0x00, 0x00, 0x00, 0xfe, 0xfe, 0xff, 0xff,
  0x04, 0x00, 0x00, 0x00, 0x0c, 0x00, 0x00, 0x00, 0x95, 0x91, 0xe1, 0x3d,
  0x85, 0x8d, 0xe0, 0x3d, 0x44, 0x93, 0x85, 0xbe, 0x16, 0xff, 0xff, 0xff,
  0x04, 0x00, 0x00, 0x00, 0x50, 0x00, 0x00, 0x00, 0x33, 0xcb, 0xb9, 0x3c,
  0x08, 0xb6, 0xbf, 0x3d, 0x08, 0xbb, 0x67, 0x3d, 0x80, 0xae, 0x86, 0x39,
  0x24, 0xab, 0x9a, 0x3d, 0xa2, 0x3c, 0x5f, 0xbd, 0xa7, 0xeb, 0x65, 0xbd,
  0xb7, 0xc1, 0x9d, 0xbc, 0xc8, 0x97, 0x9d, 0x3d, 0x64, 0x06, 0xf0, 0xbc,
  0x36, 0x6b, 0x45, 0xbd, 0x1f, 0xaf, 0x5b, 0x3d, 0x82, 0x74, 0x69, 0x3d,
  0x1d, 0xa5, 0x4c, 0x3c, 0x96, 0xc9, 0x34, 0xbd, 0x1e, 0xbe, 0x05, 0x3c,
  0xb9, 0xa2, 0x66, 0xbd, 0x41, 0x57, 0xa2, 0x3c, 0xee, 0x6f, 0x85, 0xbd,
  0x80, 0xc2, 0x6b, 0x3c, 0x5c, 0xf8, 0xff, 0xff, 0x60, 0xf8, 0xff, 0xff,
  0x0f, 0x00, 0x00, 0x00, 0x4d, 0x4c, 0x49, 0x52, 0x20, 0x43, 0x6f, 0x6e,
  0x76, 0x65, 0x72, 0x74, 0x65, 0x64, 0x2e, 0x00, 0x01, 0x00, 0x00, 0x00,
  0x14, 0x00, 0x00, 0x00, 0x00, 0x00, 0x0e, 0x00, 0x18, 0x00, 0x14, 0x00,
  0x10, 0x00, 0x0c, 0x00, 0x08, 0x00, 0x04, 0x00, 0x0e, 0x00, 0x00, 0x00,
  0x14, 0x00, 0x00, 0x00, 0x1c, 0x00, 0x00, 0x00, 0x78, 0x01, 0x00, 0x00,
  0x7c, 0x01, 0x00, 0x00, 0x80, 0x01, 0x00, 0x00, 0x04, 0x00, 0x00, 0x00,
  0x6d, 0x61, 0x69, 0x6e, 0x00, 0x00, 0x00, 0x00, 0x06, 0x00, 0x00, 0x00,
  0x3c, 0x01, 0x00, 0x00, 0xf8, 0x00, 0x00, 0x00, 0xb0, 0x00, 0x00, 0x00,
  0x78, 0x00, 0x00, 0x00, 0x40, 0x00, 0x00, 0x00, 0x04, 0x00, 0x00, 0x00,
  0x2a, 0xff, 0xff, 0xff, 0x1c, 0x00, 0x00, 0x00, 0x00, 0x00, 0x00, 0x09,
  0x1c, 0x00, 0x00, 0x00, 0x20, 0x00, 0x00, 0x00, 0x02, 0x00, 0x00, 0x00,
  0x00, 0x00, 0x06, 0x00, 0x08, 0x00, 0x04, 0x00, 0x06, 0x00, 0x00, 0x00,
  0x00, 0x00, 0x80, 0x3f, 0x01, 0x00, 0x00, 0x00, 0x0d, 0x00, 0x00, 0x00,
  0x01, 0x00, 0x00, 0x00, 0x0c, 0x00, 0x00, 0x00, 0x62, 0xff, 0xff, 0xff,
  0x14, 0x00, 0x00, 0x00, 0x00, 0x00, 0x00, 0x08, 0x10, 0x00, 0x00, 0x00,
  0x14, 0x00, 0x00, 0x00, 0x01, 0x00, 0x00, 0x00, 0x20, 0xf9, 0xff, 0xff,
  0x01, 0x00, 0x00, 0x00, 0x0c, 0x00, 0x00, 0x00, 0x03, 0x00, 0x00, 0x00,
  0x0b, 0x00, 0x00, 0x00, 0x07, 0x00, 0x00, 0x00, 0x02, 0x00, 0x00, 0x00,
  0x96, 0xff, 0xff, 0xff, 0x14, 0x00, 0x00, 0x00, 0x00, 0x00, 0x00, 0x08,
  0x10, 0x00, 0x00, 0x00, 0x14, 0x00, 0x00, 0x00, 0x01, 0x00, 0x00, 0x00,
  0x54, 0xf9, 0xff, 0xff, 0x01, 0x00, 0x00, 0x00, 0x0b, 0x00, 0x00, 0x00,
  0x03, 0x00, 0x00, 0x00, 0x0a, 0x00, 0x00, 0x00, 0x06, 0x00, 0x00, 0x00,
  0xff, 0xff, 0xff, 0xff, 0xca, 0xff, 0xff, 0xff, 0x14, 0x00, 0x00, 0x00,
  0x00, 0x00, 0x00, 0x08, 0x10, 0x00, 0x00, 0x00, 0x14, 0x00, 0x00, 0x00,
  0x01, 0x00, 0x00, 0x00, 0x88, 0xf9, 0xff, 0xff, 0x01, 0x00, 0x00, 0x00,
  0x0a, 0x00, 0x00, 0x00, 0x03, 0x00, 0x00, 0x00, 0x09, 0x00, 0x00, 0x00,
  0x05, 0x00, 0x00, 0x00, 0x01, 0x00, 0x00, 0x00, 0x00, 0x00, 0x0e, 0x00,
  0x18, 0x00, 0x14, 0x00, 0x10, 0x00, 0x0c, 0x00, 0x0b, 0x00, 0x04, 0x00,
  0x0e, 0x00, 0x00, 0x00, 0x14, 0x00, 0x00, 0x00, 0x00, 0x00, 0x00, 0x08,
  0x10, 0x00, 0x00, 0x00, 0x14, 0x00, 0x00, 0x00, 0x01, 0x00, 0x00, 0x00,
  0xcc, 0xf9, 0xff, 0xff, 0x01, 0x00, 0x00, 0x00, 0x09, 0x00, 0x00, 0x00,
  0x03, 0x00, 0x00, 0x00, 0x08, 0x00, 0x00, 0x00, 0x04, 0x00, 0x00, 0x00,
  0xff, 0xff, 0xff, 0xff, 0x00, 0x00, 0x0a, 0x00, 0x0c, 0x00, 0x00, 0x00,
  0x08, 0x00, 0x04, 0x00, 0x0a, 0x00, 0x00, 0x00, 0x08, 0x00, 0x00, 0x00,
  0x0c, 0x00, 0x00, 0x00, 0x01, 0x00, 0x00, 0x00, 0x08, 0x00, 0x00, 0x00,
  0x02, 0x00, 0x00, 0x00, 0x00, 0x00, 0x00, 0x00, 0x03, 0x00, 0x00, 0x00,
  0x01, 0x00, 0x00, 0x00, 0x0d, 0x00, 0x00, 0x00, 0x01, 0x00, 0x00, 0x00,
  0x00, 0x00, 0x00, 0x00, 0x0e, 0x00, 0x00, 0x00, 0xac, 0x05, 0x00, 0x00,
  0x24, 0x05, 0x00, 0x00, 0x9c, 0x04, 0x00, 0x00, 0x48, 0x04, 0x00, 0x00,
  0xdc, 0x03, 0x00, 0x00, 0x88, 0x03, 0x00, 0x00, 0x34, 0x03, 0x00, 0x00,
  0xe0, 0x02, 0x00, 0x00, 0x78, 0x02, 0x00, 0x00, 0x14, 0x02, 0x00, 0x00,
  0x6c, 0x01, 0x00, 0x00, 0x08, 0x01, 0x00, 0x00, 0x60, 0x00, 0x00, 0x00,
  0x04, 0x00, 0x00, 0x00, 0xa2, 0xfa, 0xff, 0xff, 0x00, 0x00, 0x00, 0x01,
  0x14, 0x00, 0x00, 0x00, 0x1c, 0x00, 0x00, 0x00, 0x1c, 0x00, 0x00, 0x00,
  0x0e, 0x00, 0x00, 0x00, 0x34, 0x00, 0x00, 0x00, 0x02, 0x00, 0x00, 0x00,
  0xff, 0xff, 0xff, 0xff, 0x03, 0x00, 0x00, 0x00, 0x88, 0xfa, 0xff, 0xff,
  0x19, 0x00, 0x00, 0x00, 0x53, 0x74, 0x61, 0x74, 0x65, 0x66, 0x75, 0x6c,
  0x50, 0x61, 0x72, 0x74, 0x69, 0x74, 0x69, 0x6f, 0x6e, 0x65, 0x64, 0x43,
  0x61, 0x6c, 0x6c, 0x3a, 0x30, 0x00, 0x00, 0x00, 0x02, 0x00, 0x00, 0x00,
  0x01, 0x00, 0x00, 0x00, 0x03, 0x00, 0x00, 0x00, 0xfa, 0xfa, 0xff, 0xff,
  0x00, 0x00, 0x00, 0x01, 0x14, 0x00, 0x00, 0x00, 0x1c, 0x00, 0x00, 0x00,
  0x1c, 0x00, 0x00, 0x00, 0x0d, 0x00, 0x00, 0x00, 0x80, 0x00, 0x00, 0x00,
  0x02, 0x00, 0x00, 0x00, 0xff, 0xff, 0xff, 0xff, 0x03, 0x00, 0x00, 0x00,
  0xe0, 0xfa, 0xff, 0xff, 0x64, 0x00, 0x00, 0x00, 0x73, 0x65, 0x71, 0x75,
  0x65, 0x6e, 0x74, 0x69, 0x61, 0x6c, 0x5f, 0x32, 0x2f, 0x64, 0x65, 0x6e,
  0x73, 0x65, 0x5f, 0x44, 0x65, 0x6e, 0x73, 0x65, 0x37, 0x2f, 0x42, 0x69,
  0x61, 0x73, 0x41, 0x64, 0x64, 0x3b, 0x73, 0x65, 0x71, 0x75, 0x65, 0x6e,
  0x74, 0x69, 0x61, 0x6c, 0x5f, 0x32, 0x2f, 0x64, 0x65, 0x6e, 0x73, 0x65,
  0x5f, 0x44, 0x65, 0x6e, 0x73, 0x65, 0x38, 0x2f, 0x4d, 0x61, 0x74, 0x4d,
  0x75, 0x6c, 0x3b, 0x73, 0x65, 0x71, 0x75, 0x65, 0x6e, 0x74, 0x69, 0x61,
  0x6c, 0x5f, 0x32, 0x2f, 0x64, 0x65, 0x6e, 0x73, 0x65, 0x5f, 0x44, 0x65,
  0x6e, 0x73, 0x65, 0x38, 0x2f, 0x42, 0x69, 0x61, 0x73, 0x41, 0x64, 0x64,
  0x00, 0x00, 0x00, 0x00, 0x02, 0x00, 0x00, 0x00, 0x01, 0x00, 0x00, 0x00,
  0x03, 0x00, 0x00, 0x00, 0x9e, 0xfb, 0xff, 0xff, 0x00, 0x00, 0x00, 0x01,
  0x14, 0x00, 0x00, 0x00, 0x1c, 0x00, 0x00, 0x00, 0x1c, 0x00, 0x00, 0x00,
  0x0c, 0x00, 0x00, 0x00, 0x3c, 0x00, 0x00, 0x00, 0x02, 0x00, 0x00, 0x00,
  0xff, 0xff, 0xff, 0xff, 0x1e, 0x00, 0x00, 0x00, 0x84, 0xfb, 0xff, 0xff,
  0x21, 0x00, 0x00, 0x00, 0x73, 0x65, 0x71, 0x75, 0x65, 0x6e, 0x74, 0x69,
  0x61, 0x6c, 0x5f, 0x32, 0x2f, 0x64, 0x65, 0x6e, 0x73, 0x65, 0x5f, 0x44,
  0x65, 0x6e, 0x73, 0x65, 0x37, 0x2f, 0x4d, 0x61, 0x74, 0x4d, 0x75, 0x6c,
  0x31, 0x00, 0x00, 0x00, 0x02, 0x00, 0x00, 0x00, 0x01, 0x00, 0x00, 0x00,
  0x1e, 0x00, 0x00, 0x00, 0xfe, 0xfb, 0xff, 0xff, 0x00, 0x00, 0x00, 0x01,
  0x14, 0x00, 0x00, 0x00, 0x1c, 0x00, 0x00, 0x00, 0x1c, 0x00, 0x00, 0x00,
  0x0b, 0x00, 0x00, 0x00, 0x80, 0x00, 0x00, 0x00, 0x02, 0x00, 0x00, 0x00,
  0xff, 0xff, 0xff, 0xff, 0x14, 0x00, 0x00, 0x00, 0xe4, 0xfb, 0xff, 0xff,
  0x64, 0x00, 0x00, 0x00, 0x73, 0x65, 0x71, 0x75, 0x65, 0x6e, 0x74, 0x69,
  0x61, 0x6c, 0x5f, 0x32, 0x2f, 0x64, 0x65, 0x6e, 0x73, 0x65, 0x5f, 0x44,
  0x65, 0x6e, 0x73, 0x65, 0x35, 0x2f, 0x42, 0x69, 0x61, 0x73, 0x41, 0x64,
  0x64, 0x3b, 0x73, 0x65, 0x71, 0x75, 0x65, 0x6e, 0x74, 0x69, 0x61, 0x6c,
  0x5f, 0x32, 0x2f, 0x64, 0x65, 0x6e, 0x73, 0x65, 0x5f, 0x44, 0x65, 0x6e,
  0x73, 0x65, 0x36, 0x2f, 0x4d, 0x61, 0x74, 0x4d, 0x75, 0x6c, 0x3b, 0x73,
  0x65, 0x71, 0x75, 0x65, 0x6e, 0x74, 0x69, 0x61, 0x6c, 0x5f, 0x32, 0x2f,
  0x64, 0x65, 0x6e, 0x73, 0x65, 0x5f, 0x44, 0x65, 0x6e, 0x73, 0x65, 0x36,
  0x2f, 0x42, 0x69, 0x61, 0x73, 0x41, 0x64, 0x64, 0x00, 0x00, 0x00, 0x00,
  0x02, 0x00, 0x00, 0x00, 0x01, 0x00, 0x00, 0x00, 0x14, 0x00, 0x00, 0x00,
  0xa2, 0xfc, 0xff, 0xff, 0x00, 0x00, 0x00, 0x01, 0x14, 0x00, 0x00, 0x00,
  0x1c, 0x00, 0x00, 0x00, 0x1c, 0x00, 0x00, 0x00, 0x0a, 0x00, 0x00, 0x00,
  0x3c, 0x00, 0x00, 0x00, 0x02, 0x00, 0x00, 0x00, 0xff, 0xff, 0xff, 0xff,
  0x08, 0x00, 0x00, 0x00, 0x88, 0xfc, 0xff, 0xff, 0x21, 0x00, 0x00, 0x00,
  0x73, 0x65, 0x71, 0x75, 0x65, 0x6e, 0x74, 0x69, 0x61, 0x6c, 0x5f, 0x32,
  0x2f, 0x64, 0x65, 0x6e, 0x73, 0x65, 0x5f, 0x44, 0x65, 0x6e, 0x73, 0x65,
  0x35, 0x2f, 0x4d, 0x61, 0x74, 0x4d, 0x75, 0x6c, 0x32, 0x00, 0x00, 0x00,
  0x02, 0x00, 0x00, 0x00, 0x01, 0x00, 0x00, 0x00, 0x08, 0x00, 0x00, 0x00,
  0x02, 0xfd, 0xff, 0xff, 0x00, 0x00, 0x00, 0x01, 0x14, 0x00, 0x00, 0x00,
  0x1c, 0x00, 0x00, 0x00, 0x1c, 0x00, 0x00, 0x00, 0x09, 0x00, 0x00, 0x00,
  0x40, 0x00, 0x00, 0x00, 0x02, 0x00, 0x00, 0x00, 0xff, 0xff, 0xff, 0xff,
  0x4b, 0x00, 0x00, 0x00, 0xe8, 0xfc, 0xff, 0xff, 0x25, 0x00, 0x00, 0x00,
  0x73, 0x65, 0x71, 0x75, 0x65, 0x6e, 0x74, 0x69, 0x61, 0x6c, 0x5f, 0x32,
  0x2f, 0x66, 0x6c, 0x61, 0x74, 0x74, 0x65, 0x6e, 0x5f, 0x46, 0x6c, 0x61,
  0x74, 0x74, 0x65, 0x6e, 0x32, 0x2f, 0x52, 0x65, 0x73, 0x68, 0x61, 0x70,
  0x65, 0x00, 0x00, 0x00, 0x02, 0x00, 0x00, 0x00, 0x01, 0x00, 0x00, 0x00,
  0x4b, 0x00, 0x00, 0x00, 0xea, 0xfd, 0xff, 0xff, 0x00, 0x00, 0x00, 0x01,
  0x10, 0x00, 0x00, 0x00, 0x10, 0x00, 0x00, 0x00, 0x08, 0x00, 0x00, 0x00,
  0x30, 0x00, 0x00, 0x00, 0x3c, 0xfd, 0xff, 0xff, 0x20, 0x00, 0x00, 0x00,
  0x73, 0x65, 0x71, 0x75, 0x65, 0x6e, 0x74, 0x69, 0x61, 0x6c, 0x5f, 0x32,
  0x2f, 0x64, 0x65, 0x6e, 0x73, 0x65, 0x5f, 0x44, 0x65, 0x6e, 0x73, 0x65,
  0x38, 0x2f, 0x4d, 0x61, 0x74, 0x4d, 0x75, 0x6c, 0x00, 0x00, 0x00, 0x00,
  0x02, 0x00, 0x00, 0x00, 0x03, 0x00, 0x00, 0x00, 0x1e, 0x00, 0x00, 0x00,
  0x3a, 0xfe, 0xff, 0xff, 0x00, 0x00, 0x00, 0x01, 0x10, 0x00, 0x00, 0x00,
  0x10, 0x00, 0x00, 0x00, 0x07, 0x00, 0x00, 0x00, 0x30, 0x00, 0x00, 0x00,
  0x8c, 0xfd, 0xff, 0xff, 0x20, 0x00, 0x00, 0x00, 0x73, 0x65, 0x71, 0x75,
  0x65, 0x6e, 0x74, 0x69, 0x61, 0x6c, 0x5f, 0x32, 0x2f, 0x64, 0x65, 0x6e,
  0x73, 0x65, 0x5f, 0x44, 0x65, 0x6e, 0x73, 0x65, 0x37, 0x2f, 0x4d, 0x61,
  0x74, 0x4d, 0x75, 0x6c, 0x00, 0x00, 0x00, 0x00, 0x02, 0x00, 0x00, 0x00,
  0x1e, 0x00, 0x00, 0x00, 0x14, 0x00, 0x00, 0x00, 0x8a, 0xfe, 0xff, 0xff,
  0x00, 0x00, 0x00, 0x01, 0x10, 0x00, 0x00, 0x00, 0x10, 0x00, 0x00, 0x00,
  0x06, 0x00, 0x00, 0x00, 0x30, 0x00, 0x00, 0x00, 0xdc, 0xfd, 0xff, 0xff,
  0x20, 0x00, 0x00, 0x00, 0x73, 0x65, 0x71, 0x75, 0x65, 0x6e, 0x74, 0x69,
  0x61, 0x6c, 0x5f, 0x32, 0x2f, 0x64, 0x65, 0x6e, 0x73, 0x65, 0x5f, 0x44,
  0x65, 0x6e, 0x73, 0x65, 0x36, 0x2f, 0x4d, 0x61, 0x74, 0x4d, 0x75, 0x6c,
  0x00, 0x00, 0x00, 0x00, 0x02, 0x00, 0x00, 0x00, 0x14, 0x00, 0x00, 0x00,
  0x08, 0x00, 0x00, 0x00, 0xda, 0xfe, 0xff, 0xff, 0x00, 0x00, 0x00, 0x01,
  0x10, 0x00, 0x00, 0x00, 0x10, 0x00, 0x00, 0x00, 0x05, 0x00, 0x00, 0x00,
  0x30, 0x00, 0x00, 0x00, 0x2c, 0xfe, 0xff, 0xff, 0x21, 0x00, 0x00, 0x00,
  0x73, 0x65, 0x71, 0x75, 0x65, 0x6e, 0x74, 0x69, 0x61, 0x6c, 0x5f, 0x32,
  0x2f, 0x64, 0x65, 0x6e, 0x73, 0x65, 0x5f, 0x44, 0x65, 0x6e, 0x73, 0x65,
  0x35, 0x2f, 0x4d, 0x61, 0x74, 0x4d, 0x75, 0x6c, 0x31, 0x00, 0x00, 0x00,
  0x02, 0x00, 0x00, 0x00, 0x08, 0x00, 0x00, 0x00, 0x4b, 0x00, 0x00, 0x00,
  0x00, 0x00, 0x16, 0x00, 0x1c, 0x00, 0x18, 0x00, 0x17, 0x00, 0x10, 0x00,
  0x0c, 0x00, 0x08, 0x00, 0x00, 0x00, 0x00, 0x00, 0x00, 0x00, 0x07, 0x00,
  0x16, 0x00, 0x00, 0x00, 0x00, 0x00, 0x00, 0x01, 0x14, 0x00, 0x00, 0x00,
  0x14, 0x00, 0x00, 0x00, 0x04, 0x00, 0x00, 0x00, 0x00, 0x00, 0x00, 0x02,
  0x30, 0x00, 0x00, 0x00, 0x98, 0xfe, 0xff, 0xff, 0x23, 0x00, 0x00, 0x00,
  0x73, 0x65, 0x71, 0x75, 0x65, 0x6e, 0x74, 0x69, 0x61, 0x6c, 0x5f, 0x32,
  0x2f, 0x66, 0x6c, 0x61, 0x74, 0x74, 0x65, 0x6e, 0x5f, 0x46, 0x6c, 0x61,
  0x74, 0x74, 0x65, 0x6e, 0x32, 0x2f, 0x43, 0x6f, 0x6e, 0x73, 0x74, 0x00,
  0x01, 0x00, 0x00, 0x00, 0x02, 0x00, 0x00, 0x00, 0x92, 0xff, 0xff, 0xff,
  0x00, 0x00, 0x00, 0x01, 0x10, 0x00, 0x00, 0x00, 0x10, 0x00, 0x00, 0x00,
  0x03, 0x00, 0x00, 0x00, 0x50, 0x00, 0x00, 0x00, 0xe4, 0xfe, 0xff, 0xff,
  0x42, 0x00, 0x00, 0x00, 0x73, 0x65, 0x71, 0x75, 0x65, 0x6e, 0x74, 0x69,
  0x61, 0x6c, 0x5f, 0x32, 0x2f, 0x64, 0x65, 0x6e, 0x73, 0x65, 0x5f, 0x44,
  0x65, 0x6e, 0x73, 0x65, 0x38, 0x2f, 0x4d, 0x61, 0x74, 0x4d, 0x75, 0x6c,
  0x3b, 0x73, 0x65, 0x71, 0x75, 0x65, 0x6e, 0x74, 0x69, 0x61, 0x6c, 0x5f,
  0x32, 0x2f, 0x64, 0x65, 0x6e, 0x73, 0x65, 0x5f, 0x44, 0x65, 0x6e, 0x73,
  0x65, 0x38, 0x2f, 0x42, 0x69, 0x61, 0x73, 0x41, 0x64, 0x64, 0x00, 0x00,
  0x01, 0x00, 0x00, 0x00, 0x03, 0x00, 0x00, 0x00, 0x00, 0x00, 0x16, 0x00,
  0x18, 0x00, 0x14, 0x00, 0x00, 0x00, 0x10, 0x00, 0x0c, 0x00, 0x08, 0x00,
  0x00, 0x00, 0x00, 0x00, 0x00, 0x00, 0x07, 0x00, 0x16, 0x00, 0x00, 0x00,
  0x00, 0x00, 0x00, 0x01, 0x10, 0x00, 0x00, 0x00, 0x10, 0x00, 0x00, 0x00,
  0x02, 0x00, 0x00, 0x00, 0x50, 0x00, 0x00, 0x00, 0x68, 0xff, 0xff, 0xff,
  0x42, 0x00, 0x00, 0x00, 0x73, 0x65, 0x71, 0x75, 0x65, 0x6e, 0x74, 0x69,
  0x61, 0x6c, 0x5f, 0x32, 0x2f, 0x64, 0x65, 0x6e, 0x73, 0x65, 0x5f, 0x44,
  0x65, 0x6e, 0x73, 0x65, 0x36, 0x2f, 0x4d, 0x61, 0x74, 0x4d, 0x75, 0x6c,
  0x3b, 0x73, 0x65, 0x71, 0x75, 0x65, 0x6e, 0x74, 0x69, 0x61, 0x6c, 0x5f,
  0x32, 0x2f, 0x64, 0x65, 0x6e, 0x73, 0x65, 0x5f, 0x44, 0x65, 0x6e, 0x73,
  0x65, 0x36, 0x2f, 0x42, 0x69, 0x61, 0x73, 0x41, 0x64, 0x64, 0x00, 0x00,
  0x01, 0x00, 0x00, 0x00, 0x14, 0x00, 0x00, 0x00, 0x00, 0x00, 0x16, 0x00,
  0x1c, 0x00, 0x18, 0x00, 0x00, 0x00, 0x14, 0x00, 0x10, 0x00, 0x0c, 0x00,
  0x00, 0x00, 0x00, 0x00, 0x08, 0x00, 0x07, 0x00, 0x16, 0x00, 0x00, 0x00,
  0x00, 0x00, 0x00, 0x01, 0x14, 0x00, 0x00, 0x00, 0x24, 0x00, 0x00, 0x00,
  0x24, 0x00, 0x00, 0x00, 0x01, 0x00, 0x00, 0x00, 0x4c, 0x00, 0x00, 0x00,
  0x03, 0x00, 0x00, 0x00, 0xff, 0xff, 0xff, 0xff, 0x19, 0x00, 0x00, 0x00,
  0x03, 0x00, 0x00, 0x00, 0x04, 0x00, 0x04, 0x00, 0x04, 0x00, 0x00, 0x00,
  0x28, 0x00, 0x00, 0x00, 0x73, 0x65, 0x72, 0x76, 0x69, 0x6e, 0x67, 0x5f,
  0x64, 0x65, 0x66, 0x61, 0x75, 0x6c, 0x74, 0x5f, 0x66, 0x6c, 0x61, 0x74,
  0x74, 0x65, 0x6e, 0x5f, 0x46, 0x6c, 0x61, 0x74, 0x74, 0x65, 0x6e, 0x32,
  0x5f, 0x69, 0x6e, 0x70, 0x75, 0x74, 0x3a, 0x30, 0x00, 0x00, 0x00, 0x00,
  0x03, 0x00, 0x00, 0x00, 0x01, 0x00, 0x00, 0x00, 0x19, 0x00, 0x00, 0x00,
  0x03, 0x00, 0x00, 0x00, 0x03, 0x00, 0x00, 0x00, 0x30, 0x00, 0x00, 0x00,
  0x14, 0x00, 0x00, 0x00, 0x04, 0x00, 0x00, 0x00, 0xe8, 0xff, 0xff, 0xff,
  0x19, 0x00, 0x00, 0x00, 0x00, 0x00, 0x00, 0x19, 0xf4, 0xff, 0xff, 0xff,
  0x09, 0x00, 0x00, 0x00, 0x00, 0x00, 0x00, 0x09, 0x0c, 0x00, 0x0c, 0x00,
  0x0b, 0x00, 0x00, 0x00, 0x00, 0x00, 0x04, 0x00, 0x0c, 0x00, 0x00, 0x00,
  0x16, 0x00, 0x00, 0x00, 0x00, 0x00, 0x00, 0x16
};
unsigned int model_tflite_len = 8588;
