unsigned char model_tflite[] = {
  0x1c, 0x00, 0x00, 0x00, 0x54, 0x46, 0x4c, 0x33, 0x14, 0x00, 0x20, 0x00,
  0x1c, 0x00, 0x18, 0x00, 0x14, 0x00, 0x10, 0x00, 0x0c, 0x00, 0x00, 0x00,
  0x08, 0x00, 0x04, 0x00, 0x14, 0x00, 0x00, 0x00, 0x1c, 0x00, 0x00, 0x00,
  0xa4, 0x00, 0x00, 0x00, 0xfc, 0x00, 0x00, 0x00, 0xec, 0x1c, 0x00, 0x00,
  0xfc, 0x1c, 0x00, 0x00, 0xfc, 0x23, 0x00, 0x00, 0x03, 0x00, 0x00, 0x00,
  0x01, 0x00, 0x00, 0x00, 0x10, 0x00, 0x00, 0x00, 0x00, 0x00, 0x0a, 0x00,
  0x10, 0x00, 0x0c, 0x00, 0x08, 0x00, 0x04, 0x00, 0x0a, 0x00, 0x00, 0x00,
  0x0c, 0x00, 0x00, 0x00, 0x1c, 0x00, 0x00, 0x00, 0x40, 0x00, 0x00, 0x00,
  0x0f, 0x00, 0x00, 0x00, 0x73, 0x65, 0x72, 0x76, 0x69, 0x6e, 0x67, 0x5f,
  0x64, 0x65, 0x66, 0x61, 0x75, 0x6c, 0x74, 0x00, 0x01, 0x00, 0x00, 0x00,
  0x04, 0x00, 0x00, 0x00, 0x84, 0xff, 0xff, 0xff, 0x0d, 0x00, 0x00, 0x00,
  0x04, 0x00, 0x00, 0x00, 0x0c, 0x00, 0x00, 0x00, 0x64, 0x65, 0x6e, 0x73,
  0x65, 0x5f, 0x44, 0x65, 0x6e, 0x73, 0x65, 0x34, 0x00, 0x00, 0x00, 0x00,
  0x01, 0x00, 0x00, 0x00, 0x04, 0x00, 0x00, 0x00, 0x06, 0xe3, 0xff, 0xff,
  0x04, 0x00, 0x00, 0x00, 0x16, 0x00, 0x00, 0x00, 0x66, 0x6c, 0x61, 0x74,
  0x74, 0x65, 0x6e, 0x5f, 0x46, 0x6c, 0x61, 0x74, 0x74, 0x65, 0x6e, 0x31,
  0x5f, 0x69, 0x6e, 0x70, 0x75, 0x74, 0x00, 0x00, 0x02, 0x00, 0x00, 0x00,
  0x34, 0x00, 0x00, 0x00, 0x04, 0x00, 0x00, 0x00, 0xdc, 0xff, 0xff, 0xff,
  0x10, 0x00, 0x00, 0x00, 0x04, 0x00, 0x00, 0x00, 0x13, 0x00, 0x00, 0x00,
  0x43, 0x4f, 0x4e, 0x56, 0x45, 0x52, 0x53, 0x49, 0x4f, 0x4e, 0x5f, 0x4d,
  0x45, 0x54, 0x41, 0x44, 0x41, 0x54, 0x41, 0x00, 0x08, 0x00, 0x0c, 0x00,
  0x08, 0x00, 0x04, 0x00, 0x08, 0x00, 0x00, 0x00, 0x0f, 0x00, 0x00, 0x00,
  0x04, 0x00, 0x00, 0x00, 0x13, 0x00, 0x00, 0x00, 0x6d, 0x69, 0x6e, 0x5f,
  0x72, 0x75, 0x6e, 0x74, 0x69, 0x6d, 0x65, 0x5f, 0x76, 0x65, 0x72, 0x73,
  0x69, 0x6f, 0x6e, 0x00, 0x11, 0x00, 0x00, 0x00, 0xec, 0x1b, 0x00, 0x00,
  0xe4, 0x1b, 0x00, 0x00, 0xcc, 0x1b, 0x00, 0x00, 0x6c, 0x1b, 0x00, 0x00,
  0x6c, 0x1a, 0x00, 0x00, 0xfc, 0x10, 0x00, 0x00, 0x6c, 0x0e, 0x00, 0x00,
  0xdc, 0x00, 0x00, 0x00, 0xc4, 0x00, 0x00, 0x00, 0xbc, 0x00, 0x00, 0x00,
  0xb4, 0x00, 0x00, 0x00, 0xac, 0x00, 0x00, 0x00, 0xa4, 0x00, 0x00, 0x00,
  0x9c, 0x00, 0x00, 0x00, 0x94, 0x00, 0x00, 0x00, 0x74, 0x00, 0x00, 0x00,
  0x04, 0x00, 0x00, 0x00, 0xce, 0xe3, 0xff, 0xff, 0x04, 0x00, 0x00, 0x00,
  0x60, 0x00, 0x00, 0x00, 0x10, 0x00, 0x00, 0x00, 0x00, 0x00, 0x00, 0x00,
  0x08, 0x00, 0x0e, 0x00, 0x08, 0x00, 0x04, 0x00, 0x08, 0x00, 0x00, 0x00,
  0x10, 0x00, 0x00, 0x00, 0x24, 0x00, 0x00, 0x00, 0x00, 0x00, 0x06, 0x00,
  0x08, 0x00, 0x04, 0x00, 0x06, 0x00, 0x00, 0x00, 0x04, 0x00, 0x00, 0x00,
  0x00, 0x00, 0x00, 0x00, 0x0c, 0x00, 0x18, 0x00, 0x14, 0x00, 0x10, 0x00,
  0x0c, 0x00, 0x04, 0x00, 0x0c, 0x00, 0x00, 0x00, 0x81, 0xdb, 0x09, 0x2e,
  0x6a, 0x21, 0x37, 0x02, 0x01, 0x00, 0x00, 0x00, 0x02, 0x00, 0x00, 0x00,
  0x04, 0x00, 0x00, 0x00, 0x06, 0x00, 0x00, 0x00, 0x32, 0x2e, 0x31, 0x37,
  0x2e, 0x30, 0x00, 0x00, 0x3a, 0xe4, 0xff, 0xff, 0x04, 0x00, 0x00, 0x00,
  0x10, 0x00, 0x00, 0x00, 0x31, 0x2e, 0x35, 0x2e, 0x30, 0x00, 0x00, 0x00,
  0x00, 0x00, 0x00, 0x00, 0x00, 0x00, 0x00, 0x00, 0x0c, 0xde, 0xff, 0xff,
  0x10, 0xde, 0xff, 0xff, 0x14, 0xde, 0xff, 0xff, 0x18, 0xde, 0xff, 0xff,
  0x1c, 0xde, 0xff, 0xff, 0x20, 0xde, 0xff, 0xff, 0x6e, 0xe4, 0xff, 0xff,
  0x04, 0x00, 0x00, 0x00, 0x08, 0x00, 0x00, 0x00, 0xff, 0xff, 0xff, 0xff,
  0x6c, 0x00, 0x00, 0x00, 0x82, 0xe4, 0xff, 0xff, 0x04, 0x00, 0x00, 0x00,
  0x80, 0x0d, 0x00, 0x00, 0x6f, 0xa3, 0xbc, 0x3d, 0xf6, 0xd2, 0xbe, 0xbd,
  0x5a, 0xff, 0x0e, 0xbe, 0x8f, 0x90, 0xd2, 0x3d, 0xa5, 0x25, 0x36, 0x3d,
  0x39, 0xab, 0xe8, 0x3d, 0xec, 0xbd, 0x74, 0x3e, 0xe6, 0xc5, 0xe2, 0xbd,
  0x50, 0x73, 0x3b, 0xbc, 0x0c, 0xa0, 0x5e, 0xbd, 0x0c, 0x55, 0xb0, 0xbd,
  0x18, 0x05, 0xa2, 0x3c, 0x1a, 0x3d, 0x2d, 0x3e, 0xb1, 0x18, 0x3d, 0xbd,
  0xff, 0x09, 0x17, 0x3d, 0x59, 0x17, 0x66, 0x3e, 0xa9, 0xd1, 0x09, 0x3d,
  0xb7, 0x17, 0x06, 0xbe, 0xc7, 0xb0, 0x4d, 0x3e, 0x98, 0x43, 0x80, 0x3e,
  0x7d, 0xeb, 0x75, 0x3c, 0x0f, 0x84, 0xa9, 0xbd, 0x67, 0x4a, 0xbc, 0xbd,
  0x3e, 0x3a, 0x1d, 0xbd, 0xde, 0x3a, 0xfc, 0x3c, 0xe7, 0x2a, 0x30, 0xbd,
  0xe0, 0x10, 0xc5, 0x3c, 0x43, 0xa3, 0x5c, 0x3d, 0x3c, 0xe7, 0xaa, 0xbd,
  0x0b, 0x9e, 0x0d, 0x3e, 0x25, 0x3d, 0x98, 0x3b, 0x64, 0xe5, 0x22, 0x3c,
  0xd5, 0xcf, 0x3c, 0x3d, 0x74, 0x75, 0x3c, 0xbd, 0x5b, 0xb2, 0x1e, 0x3d,
  0x47, 0x66, 0xeb, 0x3d, 0x64, 0xd3, 0xd3, 0xbd, 0x3a, 0x08, 0xc3, 0xbd,
  0xcd, 0xff, 0x5c, 0xbc, 0x6d, 0x13, 0x67, 0x3e, 0x41, 0xe6, 0xdf, 0x3d,
  0x5e, 0x4a, 0x0a, 0x3d, 0x03, 0xc9, 0x12, 0xbe, 0xaa, 0xf5, 0xdc, 0xbc,
  0x89, 0x13, 0xc9, 0x3d, 0x3d, 0xef, 0x61, 0xbb, 0x5f, 0xc8, 0x18, 0xbe,
  0x1c, 0x37, 0x97, 0xbd, 0x98, 0xc1, 0xe0, 0x3d, 0xbf, 0x29, 0x33, 0x3e,
  0xb1, 0x94, 0xcf, 0x3d, 0x0a, 0xaa, 0x1f, 0x3d, 0xf7, 0x88, 0x38, 0xbc,
  0x9e, 0x61, 0x30, 0x3d, 0xeb, 0xad, 0xf3, 0x3c, 0xc8, 0xe2, 0x2b, 0xbc,
  0xdf, 0xc2, 0x88, 0x3d, 0xda, 0xa8, 0xb9, 0x3d, 0xd5, 0x59, 0x68, 0x3c,
  0xb7, 0x54, 0x2b, 0x3e, 0xc5, 0x35, 0x9f, 0xbc, 0x67, 0x50, 0xf4, 0xbd,
  0x38, 0x9e, 0xc2, 0xbd, 0x98, 0x97, 0xa2, 0xbd, 0x89, 0xf9, 0x42, 0x3d,
  0x26, 0x6d, 0x0a, 0xbd, 0xfd, 0x3c, 0x61, 0xbd, 0x3b, 0xf2, 0xbb, 0x3d,
  0x08, 0x37, 0x99, 0x3d, 0xeb, 0xad, 0xb4, 0x3d, 0xd8, 0x46, 0x1c, 0xbe,
  0x9e, 0x0b, 0xfe, 0xbd, 0xc6, 0x09, 0xa3, 0xbd, 0x91, 0xe9, 0x10, 0xbe,
  0x10, 0xc7, 0x04, 0xbe, 0xa6, 0x17, 0xb5, 0xbc, 0x84, 0x35, 0x19, 0x3c,
  0x70, 0x5e, 0x45, 0x3e, 0x83, 0x7f, 0x61, 0x3d, 0xc4, 0x17, 0x3f, 0x3d,
  0x5a, 0x94, 0x96, 0x3d, 0x46, 0x6b, 0xfe, 0x3d, 0xbc, 0x2e, 0xfc, 0xbb,
  0x61, 0x63, 0xa7, 0xbc, 0x50, 0x4c, 0x0f, 0x3e, 0x14, 0xed, 0xc3, 0xbd,
  0xa3, 0x17, 0x97, 0xbd, 0x15, 0xad, 0x4d, 0xbd, 0xf0, 0x83, 0xfa, 0xbc,
  0xca, 0x75, 0x87, 0xbe, 0x7a, 0xa5, 0x95, 0x3d, 0x10, 0xca, 0xb8, 0xbd,
  0x63, 0x58, 0x8b, 0x3d, 0x35, 0x77, 0x27, 0x3e, 0x98, 0xcb, 0x45, 0xbe,
  0x53, 0x9e, 0x13, 0x3e, 0xff, 0xad, 0xcd, 0x3b, 0xd4, 0xcb, 0x1e, 0xbe,
  0xf4, 0x19, 0x89, 0x3c, 0x01, 0xd7, 0xf6, 0x3d, 0x88, 0x16, 0x68, 0x3e,
  0x50, 0xa4, 0x40, 0x3c, 0x93, 0xce, 0xa2, 0x3d, 0xdb, 0x5c, 0xc4, 0x3d,
  0x19, 0xf1, 0x8e, 0x3d, 0xa9, 0x82, 0xb8, 0x3c, 0xdb, 0x19, 0xb9, 0xbd,
  0x6c, 0x96, 0x27, 0x3e, 0xd3, 0xc8, 0xb0, 0xba, 0x67, 0x6f, 0x2b, 0x3e,
  0x7f, 0xae, 0x22, 0xbe, 0x4d, 0xc7, 0x67, 0x3d, 0x05, 0x2c, 0xc6, 0x3d,
  0x34, 0x88, 0x43, 0xbd, 0xbb, 0x64, 0x82, 0x3d, 0xc2, 0xc9, 0x21, 0xbd,
  0x33, 0x1c, 0x40, 0x3c, 0x54, 0x82, 0x36, 0xbd, 0x10, 0x80, 0x11, 0x3e,
  0x4f, 0x1e, 0x06, 0x3e, 0xfe, 0x06, 0xab, 0xbc, 0x1b, 0xf4, 0x16, 0xbe,
  0x89, 0xa5, 0x9a, 0x3d, 0xa3, 0x61, 0xf8, 0xbc, 0x9d, 0x76, 0xdd, 0x3d,
  0x4f, 0x33, 0xf4, 0x3d, 0x0a, 0x2b, 0x6f, 0x3d, 0xf8, 0x46, 0x39, 0x3d,
  0xf5, 0x5c, 0xf2, 0x3d, 0xd5, 0x42, 0x0c, 0xbe, 0x17, 0xd0, 0x24, 0x3b,
  0xa5, 0x73, 0x8a, 0xbd, 0xdf, 0xb8, 0xac, 0xbd, 0x26, 0xc8, 0x34, 0x3e,
  0x53, 0xf2, 0x43, 0x3d, 0x9a, 0x0d, 0xb2, 0xbd, 0x4b, 0x0e, 0xa4, 0x3d,
  0x15, 0xc3, 0xe5, 0x3d, 0x09, 0x7a, 0x8d, 0xbe, 0x62, 0xc5, 0x65, 0xbd,
  0x95, 0x5b, 0x42, 0xbe, 0x51, 0x28, 0x08, 0xbd, 0xc9, 0x56, 0x8b, 0xbd,
  0x47, 0x84, 0x1f, 0x3c, 0x0e, 0x53, 0x53, 0xbe, 0xd5, 0x53, 0x8a, 0x3d,
  0x5a, 0x55, 0xe1, 0x3d, 0x43, 0x50, 0x5d, 0x3e, 0x2d, 0xac, 0xca, 0x3c,
  0x3d, 0xa0, 0xe8, 0xbd, 0x4f, 0x33, 0x10, 0xbe, 0x65, 0x93, 0x0b, 0x3b,
  0xdb, 0xb0, 0xa2, 0x3d, 0x7c, 0xe2, 0xf2, 0xbc, 0xfc, 0xf7, 0xa1, 0x3d,
  0x05, 0x3d, 0x09, 0xbd, 0x55, 0x5e, 0x87, 0xbe, 0x9b, 0x31, 0xee, 0xbd,
  0x19, 0xa6, 0x44, 0xbd, 0x6d, 0x62, 0x09, 0x3e, 0x10, 0x88, 0x03, 0x3e,
  0xa5, 0x3d, 0xe1, 0x3b, 0xf7, 0xe8, 0x02, 0x3e, 0xac, 0x64, 0xa4, 0x3c,
  0x89, 0xd1, 0xf0, 0xbd, 0x67, 0xda, 0x66, 0x3e, 0x47, 0xbe, 0xd3, 0x3d,
  0xdf, 0x48, 0x64, 0xbb, 0x18, 0x0d, 0xaa, 0xbd, 0xf6, 0x4f, 0x18, 0x3e,
  0xa0, 0x5c, 0x10, 0xbd, 0x6d, 0x66, 0xff, 0xbb, 0xb0, 0x17, 0x3f, 0xbd,
  0xf0, 0xa7, 0x55, 0x3e, 0x20, 0x8b, 0x14, 0xbd, 0x6a, 0x51, 0x81, 0x3b,
  0x1b, 0xac, 0x7f, 0x3d, 0x55, 0xa2, 0x9e, 0xbd, 0xba, 0xaa, 0xdf, 0x3c,
  0xa0, 0x3f, 0x51, 0x3d, 0x51, 0xa5, 0xea, 0x3a, 0x63, 0x33, 0xd5, 0xbc,
  0xaa, 0x43, 0xa1, 0x3c, 0xa7, 0x02, 0x9e, 0x3c, 0xb7, 0x20, 0x5b, 0xbd,
  0xda, 0x7f, 0x64, 0x3d, 0xfb, 0x15, 0xd3, 0xbd, 0xb2, 0xd0, 0x49, 0xbb,
  0x47, 0x62, 0x35, 0x3e, 0x6e, 0x26, 0x4f, 0xbe, 0x17, 0x47, 0x86, 0x3d,
  0xfb, 0x61, 0x72, 0xbd, 0x0c, 0x6d, 0xb6, 0xbc, 0xd0, 0x58, 0x70, 0xbe,
  0x76, 0xe5, 0xb9, 0xbc, 0x0f, 0xa5, 0x2c, 0xbe, 0xfb, 0x27, 0x77, 0xb9,
  0x9e, 0x06, 0x06, 0xbe, 0x5b, 0x23, 0xe9, 0x3c, 0x31, 0x41, 0x1b, 0xbc,
  0x85, 0xee, 0x6e, 0xbe, 0x00, 0x5c, 0xfb, 0x3d, 0x94, 0xc7, 0x76, 0xbe,
  0x09, 0x5f, 0x5f, 0x3d, 0x91, 0x36, 0x30, 0x3e, 0x23, 0xf5, 0x40, 0xbd,
  0xe3, 0x8a, 0x13, 0xbe, 0x25, 0x88, 0xfd, 0xbb, 0xfa, 0xd1, 0x61, 0xbe,
  0xc7, 0x9d, 0x7a, 0x3c, 0x3d, 0x5b, 0x3a, 0x3e, 0xf8, 0x82, 0x31, 0x3e,
  0xff, 0x66, 0xc0, 0x3c, 0xc9, 0x4d, 0x0f, 0xbe, 0xb8, 0x49, 0xf5, 0xbd,
  0xb3, 0x59, 0xaa, 0xbc, 0x40, 0x93, 0x20, 0x3c, 0x60, 0x6d, 0xee, 0x3c,
  0xb5, 0x36, 0xbb, 0x3c, 0x28, 0x19, 0xb3, 0xbd, 0x10, 0x61, 0x02, 0x3e,
  0xfd, 0x59, 0x01, 0x3d, 0x75, 0xa1, 0x5a, 0xbd, 0x36, 0x26, 0x28, 0x3d,
  0x88, 0xd9, 0x47, 0x3e, 0xce, 0x39, 0x78, 0x3d, 0x9f, 0x44, 0x38, 0x3e,
  0xaf, 0x94, 0x16, 0x3c, 0xd7, 0xb1, 0xc1, 0xbd, 0x9e, 0xaf, 0xbb, 0xbd,
  0xae, 0x9e, 0x99, 0x3d, 0x93, 0xc8, 0x7f, 0x3d, 0xc8, 0x41, 0x2c, 0xbc,
  0x4f, 0xbf, 0x18, 0xbd, 0x09, 0x90, 0x10, 0x3e, 0xb0, 0x9c, 0x47, 0xbe,
  0x3a, 0xa3, 0x5f, 0xbe, 0x72, 0xcb, 0x04, 0xbe, 0x5a, 0x53, 0x2b, 0x3d,
  0x6d, 0x2e, 0x69, 0xbd, 0x92, 0xd9, 0xa8, 0x3c, 0x16, 0x56, 0xb1, 0x3d,
  0xdc, 0x29, 0xfd, 0x3d, 0x07, 0xf7, 0x6c, 0x3d, 0x1e, 0xb1, 0x6f, 0xbe,
  0x28, 0xa7, 0x0f, 0x3e, 0x6f, 0xac, 0x07, 0x3d, 0xfd, 0xd7, 0x55, 0xbe,
  0xfd, 0x05, 0x13, 0xbe, 0x7e, 0xc2, 0xf0, 0xbd, 0x6c, 0xe2, 0x98, 0xbd,
  0xdd, 0xaf, 0x03, 0xbd, 0xbe, 0xa7, 0x9f, 0xbb, 0x31, 0x6d, 0x30, 0x3e,
  0xf1, 0xb4, 0x1b, 0xbd, 0x01, 0x55, 0xd6, 0x3d, 0x25, 0x6c, 0x1e, 0xbd,
  0xab, 0x64, 0xc8, 0xbd, 0x3c, 0x6b, 0x95, 0x3d, 0xb9, 0xe0, 0x7b, 0x3e,
  0xb9, 0x56, 0x4b, 0x3e, 0x30, 0x77, 0x00, 0xbe, 0x2d, 0x6c, 0x21, 0x3e,
  0x5f, 0x6c, 0xf8, 0xbc, 0xcf, 0x79, 0x55, 0xbe, 0xfe, 0x2b, 0x2b, 0xbe,
  0xc9, 0x1b, 0x42, 0xbd, 0x3c, 0xc9, 0x23, 0x3c, 0x6d, 0x84, 0xcc, 0xbd,
  0xfd, 0xd3, 0x33, 0xbe, 0xe9, 0x97, 0x1e, 0xbe, 0xaa, 0xbf, 0x6b, 0xbd,
  0x8c, 0xb0, 0x20, 0x3e, 0x10, 0x06, 0x79, 0x3d, 0xb6, 0x7b, 0x63, 0xbd,
  0x5f, 0x17, 0xb5, 0x3d, 0x37, 0xa2, 0x12, 0x3d, 0x88, 0x97, 0x85, 0xbc,
  0x51, 0x5a, 0x95, 0x3d, 0x97, 0xd3, 0xee, 0x3d, 0x46, 0x8c, 0x2f, 0xbd,
  0xec, 0x61, 0x1d, 0xbd, 0x12, 0xe3, 0x81, 0xbe, 0xf3, 0xee, 0xa8, 0x3d,
  0xc5, 0xa3, 0x2f, 0xbd, 0x3b, 0x4e, 0x8f, 0xbd, 0x53, 0x69, 0xf7, 0x3d,
  0xf2, 0xf3, 0x49, 0x3d, 0x52, 0xbc, 0x7b, 0x3d, 0x3f, 0x8a, 0x01, 0xbc,
  0xa0, 0xff, 0xdf, 0x3d, 0x1c, 0xd9, 0xac, 0x3d, 0x8f, 0x3c, 0x48, 0x3e,
  0x08, 0xba, 0x52, 0xbd, 0x2b, 0x80, 0x60, 0x3d, 0x49, 0x9a, 0x52, 0x3d,
  0xb3, 0xb5, 0x0f, 0x3d, 0x71, 0x8e, 0x3e, 0x3e, 0x15, 0x58, 0x45, 0x3c,
  0x2f, 0x7a, 0x6b, 0xbd, 0x7c, 0xd6, 0x05, 0xbc, 0x4a, 0x62, 0x3e, 0xbd,
  0xb4, 0x40, 0xf1, 0xbd, 0x8a, 0xd9, 0xa2, 0x3d, 0xef, 0xd8, 0xb4, 0xbd,
  0x82, 0xf1, 0x0a, 0xbd, 0xd8, 0x80, 0x77, 0x3d, 0x35, 0x25, 0xb0, 0x3d,
  0x0b, 0x31, 0x1b, 0xbe, 0x3a, 0xdf, 0x03, 0xbd, 0x19, 0x7e, 0x38, 0xbe,
  0xc1, 0x88, 0xf1, 0xbd, 0x34, 0x8a, 0x89, 0x3d, 0xf5, 0x3a, 0xf1, 0xbd,
  0x0e, 0x10, 0xc0, 0x3d, 0xa6, 0xb3, 0x0c, 0xbc, 0x0d, 0xef, 0x15, 0xbd,
  0xe2, 0x3c, 0x0b, 0x3e, 0x93, 0x83, 0x61, 0x3e, 0xda, 0x68, 0x10, 0x3e,
  0x65, 0x6e, 0xde, 0xbd, 0x16, 0x73, 0x70, 0x3b, 0x8e, 0xb0, 0x38, 0x3e,
  0x62, 0x2b, 0x72, 0x3d, 0xc7, 0xfe, 0xae, 0xbc, 0x0d, 0x6e, 0x35, 0x3c,
  0xfa, 0x27, 0x0a, 0x3e, 0x61, 0x3f, 0x76, 0xbd, 0x6a, 0x0a, 0x37, 0xbd,
  0xc0, 0xae, 0x03, 0x3d, 0xb4, 0x80, 0xd0, 0xbd, 0x11, 0x3e, 0x33, 0xbd,
  0x62, 0x3e, 0x7c, 0x3d, 0x7a, 0x55, 0x09, 0xbe, 0xd2, 0x1a, 0xfd, 0xbd,
  0xc3, 0xf8, 0xf7, 0xbd, 0xbc, 0xb6, 0x54, 0xbc, 0x4f, 0xf4, 0x06, 0x3e,
  0xee, 0x3f, 0x10, 0x3e, 0x2d, 0xd4, 0x25, 0xbd, 0x2d, 0xd9, 0x0e, 0xbe,
  0x9a, 0xe3, 0xfa, 0x3d, 0xc0, 0x8b, 0x82, 0xbd, 0x32, 0x59, 0xac, 0x3c,
  0xa3, 0xc8, 0x8f, 0x3c, 0xa4, 0x62, 0x90, 0xbd, 0x81, 0x97, 0xa4, 0xbd,
  0x3e, 0xc5, 0x23, 0xbe, 0xa2, 0xef, 0xf6, 0xbd, 0x57, 0x51, 0xd7, 0x3d,
  0xa0, 0xf5, 0x83, 0xbd, 0xa5, 0x63, 0x9a, 0xbc, 0x2b, 0x03, 0x3a, 0x3e,
  0x85, 0x91, 0x23, 0x3d, 0x83, 0x56, 0x78, 0xbe, 0x0e, 0x2d, 0xf0, 0x3b,
  0xc1, 0xd8, 0x24, 0x3e, 0xb9, 0xf2, 0xaa, 0x3b, 0x29, 0xb5, 0x07, 0xbe,
  0x04, 0xcf, 0xce, 0xbc, 0x86, 0xc1, 0x04, 0xbe, 0x5f, 0x59, 0x01, 0xbe,
  0x4a, 0xba, 0x2e, 0xbd, 0x3f, 0x44, 0x70, 0xbe, 0x8f, 0xe9, 0xb3, 0x3d,
  0xc4, 0xd2, 0xab, 0x3d, 0x4a, 0x3b, 0x84, 0xbe, 0x2c, 0x6a, 0x3d, 0x3d,
  0xb5, 0x4e, 0x80, 0x3c, 0x98, 0xf6, 0x87, 0xbe, 0xae, 0x89, 0x14, 0x3d,
  0xff, 0xd3, 0x6c, 0x3d, 0xd3, 0x3e, 0x17, 0x3e, 0x7e, 0x1a, 0x06, 0xbd,
  0x29, 0x8e, 0x98, 0x3d, 0x76, 0x11, 0x0c, 0xbd, 0x74, 0xb0, 0x0c, 0xbe,
  0xbd, 0xc5, 0x97, 0xbd, 0xeb, 0x49, 0x1e, 0x3e, 0x23, 0x9a, 0x6e, 0xbe,
  0xb5, 0xac, 0x9d, 0x3b, 0xdc, 0x6e, 0x01, 0xbe, 0x4e, 0x55, 0xf1, 0x3d,
  0xbd, 0x1d, 0x53, 0xbb, 0x81, 0x15, 0x34, 0xbe, 0x9a, 0x74, 0x2b, 0xbd,
  0xa8, 0xce, 0xc0, 0xbd, 0x0a, 0x9c, 0x77, 0xbd, 0xa9, 0x60, 0x11, 0xbe,
  0xf2, 0x3f, 0x8e, 0xbd, 0xf4, 0x00, 0x58, 0xbe, 0xac, 0x69, 0x11, 0xbd,
  0x71, 0xca, 0x68, 0xbe, 0xaa, 0xe7, 0x67, 0xbd, 0xed, 0x6c, 0x0d, 0x3d,
  0x1b, 0x9c, 0x80, 0x3d, 0xbc, 0x4f, 0x03, 0xbe, 0x20, 0x92, 0x5b, 0x3e,
  0xc0, 0xd3, 0xe3, 0xbc, 0x38, 0xbf, 0xa5, 0xbd, 0xb2, 0x6f, 0xd8, 0x3d,
  0x27, 0x14, 0x56, 0x3c, 0x22, 0xa9, 0x2d, 0xbc, 0x46, 0xde, 0xbd, 0x3d,
  0xe7, 0x36, 0x46, 0x3b, 0x32, 0x84, 0x11, 0xbd, 0xc2, 0x39, 0xd5, 0x3d,
  0x91, 0xbe, 0xb4, 0x3c, 0x74, 0x7f, 0x1e, 0x3c, 0x73, 0x36, 0xdd, 0xbd,
  0x8b, 0x0f, 0x5c, 0xbb, 0xf3, 0xc7, 0x23, 0x3d, 0x34, 0xf9, 0xad, 0x3d,
  0x91, 0x94, 0x07, 0xbd, 0x83, 0x75, 0x46, 0xbe, 0x36, 0x40, 0x00, 0xbc,
  0xe6, 0x99, 0xe9, 0xbc, 0x88, 0x04, 0x41, 0x3e, 0xe9, 0x1b, 0xe1, 0x3d,
  0xa9, 0x28, 0x01, 0xbd, 0x0e, 0x19, 0x38, 0xbc, 0x86, 0xf5, 0x13, 0xbe,
  0x48, 0xfb, 0x67, 0x3e, 0x29, 0xf5, 0x6a, 0x3d, 0xd1, 0x21, 0x86, 0x3e,
  0x1f, 0x32, 0xc2, 0x3d, 0x6a, 0x6b, 0x1e, 0xb9, 0x4d, 0x6a, 0x59, 0x3d,
  0x7a, 0x44, 0x85, 0xbd, 0x9c, 0xca, 0xf7, 0x3d, 0xee, 0xf6, 0x57, 0xbe,
  0xe9, 0x82, 0xa6, 0x3c, 0x68, 0xdd, 0x04, 0x3d, 0x5d, 0x7e, 0xf3, 0x3c,
  0xa3, 0x45, 0x8a, 0x3d, 0xbf, 0x0b, 0x09, 0x3c, 0xa7, 0xdb, 0x7b, 0xbc,
  0x29, 0xf7, 0xee, 0x3d, 0xd1, 0x13, 0xeb, 0xbd, 0x18, 0x5d, 0xa9, 0x3d,
  0xb4, 0x12, 0xa4, 0x3b, 0x84, 0x0c, 0x9b, 0x3c, 0x96, 0x29, 0xa9, 0xbc,
  0xa6, 0x1a, 0xdc, 0xbd, 0x03, 0xd4, 0x80, 0x3d, 0x1f, 0xa6, 0x12, 0x3d,
  0x90, 0x73, 0x96, 0x3d, 0xf1, 0xdd, 0x15, 0xbe, 0x14, 0x4b, 0x36, 0x3e,
  0x11, 0xd5, 0x84, 0xbc, 0x34, 0x2e, 0x35, 0x3e, 0x79, 0xc3, 0x33, 0x3b,
  0x6a, 0x06, 0x51, 0xbd, 0x28, 0xb3, 0x92, 0x3e, 0x66, 0x98, 0x31, 0xbe,
  0xc8, 0xfa, 0x48, 0x3d, 0x38, 0x33, 0x0c, 0x3e, 0xdb, 0x3f, 0xdc, 0xbd,
  0x50, 0xf5, 0xea, 0xbd, 0x6c, 0x32, 0xc9, 0xbb, 0xf2, 0x20, 0x5b, 0x3e,
  0x3a, 0x5b, 0x55, 0xbe, 0xed, 0x3e, 0x1b, 0xbe, 0xf6, 0x57, 0x52, 0x3e,
  0x0f, 0xc8, 0x19, 0x3e, 0x18, 0xfc, 0x08, 0x3e, 0x03, 0xf6, 0xa3, 0xbd,
  0x56, 0x1a, 0x15, 0xbe, 0x50, 0x30, 0xf8, 0x3d, 0x95, 0xb7, 0x91, 0x3e,
  0x1c, 0x52, 0x55, 0x3c, 0x5d, 0x74, 0x84, 0x3d, 0x96, 0x20, 0x4e, 0xbe,
  0xb5, 0xfe, 0x4d, 0xbd, 0x9d, 0x95, 0x4b, 0xbd, 0xf9, 0x90, 0xa2, 0xbd,
  0x16, 0x26, 0x99, 0x3d, 0xf0, 0x6a, 0xf5, 0x3d, 0xeb, 0xaf, 0x37, 0xbd,
  0x13, 0xa0, 0x3b, 0x3e, 0xce, 0xd6, 0xc9, 0xbd, 0x87, 0xd2, 0x33, 0x3e,
  0x7b, 0x71, 0x3f, 0xbe, 0x56, 0x81, 0x45, 0x3e, 0x44, 0xd7, 0xea, 0x3d,
  0x26, 0x9f, 0x18, 0x3e, 0xfa, 0x2b, 0x2e, 0x3c, 0x8d, 0x29, 0x90, 0xbe,
  0xd9, 0x94, 0x5d, 0x3d, 0x93, 0x7e, 0x4b, 0x3e, 0xc8, 0xa0, 0x88, 0xbc,
  0x6a, 0x53, 0xa9, 0xbd, 0xc4, 0xef, 0x17, 0xbe, 0x2e, 0x2a, 0x5f, 0xbd,
  0x5f, 0xd0, 0xa0, 0xbd, 0x41, 0x69, 0x29, 0xbc, 0xb1, 0x0a, 0x3a, 0x3e,
  0xaa, 0x9a, 0xdf, 0x3c, 0xd1, 0x48, 0x7c, 0x3e, 0x37, 0x76, 0x30, 0x3d,
  0xb7, 0xee, 0x01, 0xbe, 0xd4, 0xf9, 0xe6, 0xbd, 0x8a, 0x3a, 0x26, 0xbb,
  0xe7, 0x6c, 0x2c, 0xbe, 0x79, 0xda, 0x80, 0xbd, 0x8d, 0x2c, 0x6f, 0xbe,
  0xe5, 0x6f, 0xc3, 0xbd, 0x20, 0x8d, 0x3e, 0x3e, 0xee, 0x90, 0x95, 0xbd,
  0xfa, 0x0b, 0x23, 0x3d, 0xcc, 0x27, 0xeb, 0x3d, 0x21, 0x3c, 0x89, 0x3d,
  0x30, 0xf4, 0xcb, 0x3d, 0x3e, 0x1d, 0xdc, 0xbc, 0x7c, 0x28, 0x4c, 0xbe,
  0x31, 0x36, 0x8e, 0x3d, 0x27, 0xd3, 0x9a, 0x3e, 0x27, 0xb9, 0x3a, 0xbe,
  0x5d, 0x28, 0xc1, 0x3c, 0xec, 0x02, 0x4a, 0x3c, 0x8e, 0xf9, 0xdc, 0xbd,
  0xb5, 0xbc, 0x93, 0xbd, 0x42, 0xb4, 0x5d, 0xbb, 0x2e, 0xbf, 0x16, 0xbd,
  0x45, 0x4c, 0xfd, 0xbd, 0xb4, 0xbc, 0xf6, 0xbd, 0x9d, 0x2d, 0x2a, 0xbd,
  0x64, 0x7d, 0xd6, 0xbd, 0x7d, 0xfc, 0xce, 0xbc, 0x1e, 0xc2, 0xf8, 0x3a,
  0x5f, 0xe3, 0x16, 0xbe, 0xa3, 0x52, 0x8f, 0x3d, 0x06, 0x59, 0xe5, 0x3c,
  0xd3, 0x2f, 0xb6, 0x3c, 0x66, 0x2a, 0x5b, 0xbd, 0xd6, 0x6c, 0xc2, 0x3c,
  0x40, 0x75, 0xac, 0x3b, 0xe3, 0xa5, 0x06, 0x3d, 0xd2, 0xdb, 0xea, 0x3c,
  0xed, 0xb0, 0x11, 0x3e, 0x6f, 0x85, 0x49, 0xbe, 0x03, 0x5b, 0x07, 0x3d,
  0x33, 0x67, 0x31, 0x3c, 0x31, 0x73, 0x16, 0x3b, 0x75, 0x02, 0xe7, 0xbd,
  0x21, 0x1e, 0x01, 0x3c, 0xf2, 0xf3, 0x51, 0xbe, 0xd3, 0xb4, 0x3d, 0x3e,
  0xff, 0xb0, 0xe6, 0xbb, 0x57, 0x96, 0x0a, 0x3e, 0xae, 0xce, 0xf8, 0xbc,
  0xe4, 0xff, 0xb0, 0xbd, 0xb9, 0xf7, 0x94, 0x3a, 0xc6, 0xfa, 0x5b, 0xbd,
  0x20, 0xa0, 0x15, 0x3e, 0x12, 0x71, 0x07, 0x3e, 0xe2, 0x32, 0xba, 0x3d,
  0xa1, 0xe7, 0x8c, 0xbd, 0x31, 0x0b, 0xb0, 0x3c, 0xc0, 0xcf, 0xb4, 0x3c,
  0x67, 0x57, 0x65, 0xbe, 0x0a, 0x4f, 0xe1, 0x3d, 0x82, 0xde, 0x24, 0xbd,
  0x16, 0x2d, 0x6a, 0x3d, 0xcd, 0x25, 0xa1, 0x3d, 0xa9, 0x0d, 0x8e, 0xbd,
  0xed, 0xa9, 0xe9, 0xbd, 0x7f, 0x5b, 0x1c, 0x3d, 0x61, 0x31, 0x26, 0xbe,
  0x92, 0x95, 0x33, 0xbd, 0x74, 0x19, 0xcc, 0xbd, 0x87, 0x92, 0xee, 0x3c,
  0x49, 0x4f, 0x5f, 0xbe, 0xbe, 0xad, 0x12, 0xbe, 0x2f, 0xdf, 0xa5, 0xbc,
  0x0c, 0xc4, 0x98, 0xbd, 0x66, 0x21, 0x13, 0xbe, 0xcc, 0x78, 0xea, 0x3d,
  0xbd, 0x16, 0xd6, 0x3c, 0x74, 0x10, 0xd7, 0x3c, 0x80, 0xeb, 0x09, 0x3e,
  0x3e, 0x6d, 0x2b, 0xbe, 0x39, 0x46, 0x89, 0x3d, 0x92, 0xeb, 0x84, 0xbe,
  0xa5, 0x75, 0xfa, 0xbb, 0xc1, 0x7d, 0xb0, 0x3d, 0x92, 0xeb, 0xdd, 0xbd,
  0x94, 0x16, 0x86, 0x3b, 0x2d, 0xb1, 0x1a, 0xbe, 0xe3, 0x11, 0x4b, 0xbe,
  0x91, 0x97, 0x49, 0x3e, 0xc7, 0x0b, 0x47, 0xbd, 0xd5, 0x1a, 0xa5, 0xbd,
  0xfc, 0xe7, 0x18, 0xbd, 0x30, 0x15, 0x1a, 0x3e, 0x88, 0xdc, 0x29, 0xbe,
  0x8e, 0x49, 0x4e, 0xbe, 0x5f, 0x8b, 0xf2, 0x3c, 0x66, 0x28, 0xc8, 0x3d,
  0x09, 0x46, 0x01, 0x3e, 0x6c, 0x05, 0xa3, 0x3d, 0x0f, 0xd5, 0xc1, 0xbd,
  0x4e, 0x2b, 0x65, 0xbd, 0x72, 0xa2, 0xf4, 0x3d, 0x40, 0x17, 0x09, 0xbd,
  0xde, 0xe0, 0x92, 0x3d, 0x24, 0xe9, 0x4d, 0x3e, 0xeb, 0x33, 0x25, 0xbe,
  0x88, 0xcf, 0xaa, 0x3d, 0xc4, 0x5b, 0xcb, 0x3d, 0x37, 0x7f, 0x0d, 0xbd,
  0x56, 0xd5, 0x4f, 0x3d, 0x81, 0xd2, 0x18, 0xbd, 0x9c, 0x1a, 0xf8, 0xbd,
  0x2b, 0x46, 0x44, 0x3d, 0x2c, 0x37, 0x9a, 0xbd, 0xaf, 0x56, 0x88, 0xbd,
  0x63, 0x6a, 0xba, 0xbd, 0xcc, 0x2d, 0xfa, 0x3d, 0x62, 0xbe, 0x2c, 0x3e,
  0xf6, 0xb8, 0x94, 0x3d, 0x43, 0xa9, 0x24, 0xbc, 0xe2, 0xe5, 0x78, 0xbe,
  0x44, 0x7f, 0x45, 0x3e, 0xe3, 0x3e, 0xd2, 0x3d, 0x85, 0x7f, 0x06, 0x3e,
  0xe6, 0xf6, 0x3f, 0xbd, 0x2e, 0xa8, 0x58, 0xbc, 0x6e, 0xe5, 0xe6, 0x3d,
  0x43, 0xee, 0x7d, 0xbe, 0xfa, 0x46, 0x15, 0xbd, 0x4e, 0xcc, 0x0d, 0xbd,
  0xd1, 0x4a, 0x92, 0xbd, 0x9d, 0x2c, 0x20, 0x3e, 0x4d, 0xac, 0x0a, 0x3d,
  0x7d, 0x01, 0x24, 0xbe, 0x9d, 0x90, 0xf2, 0x3d, 0xda, 0x9e, 0xb7, 0xbd,
  0xce, 0x00, 0x42, 0x3e, 0xe9, 0x6b, 0xb7, 0x3d, 0x11, 0xb7, 0x81, 0xbd,
  0xba, 0xa5, 0xb9, 0x3c, 0xa4, 0xc8, 0x1e, 0xbe, 0x2b, 0x8a, 0xb5, 0xbc,
  0x00, 0xd5, 0x13, 0x3e, 0x6a, 0xeb, 0xe5, 0xbd, 0x36, 0x31, 0x76, 0x3e,
  0xa3, 0x29, 0xb9, 0x3d, 0x8e, 0x19, 0x09, 0xbc, 0x64, 0x43, 0x16, 0x3c,
  0x19, 0x6d, 0x09, 0xbd, 0x69, 0x7e, 0xd6, 0xbb, 0x90, 0x0c, 0x64, 0xbc,
  0xdb, 0x7a, 0x2c, 0x3d, 0x04, 0x38, 0x3a, 0xbb, 0xa5, 0xb4, 0xd9, 0xbd,
  0xce, 0x50, 0x7e, 0x3e, 0xcd, 0xc5, 0x3f, 0xbe, 0x76, 0xfd, 0xdf, 0xbd,
  0x75, 0xd4, 0xb8, 0x3d, 0xd7, 0xf0, 0xbe, 0x3c, 0x47, 0xc3, 0xc4, 0xbd,
  0x07, 0x7b, 0x31, 0x3d, 0xa2, 0x34, 0x80, 0x3e, 0xeb, 0xc5, 0x49, 0xbd,
  0xcd, 0xc0, 0x60, 0xbe, 0x1f, 0xa3, 0xe1, 0xbd, 0x63, 0xea, 0xbc, 0xbd,
  0x1b, 0xc2, 0xd9, 0xbd, 0xc5, 0x7f, 0x38, 0x3c, 0xd7, 0x8d, 0x60, 0xbc,
  0x8e, 0x35, 0xdf, 0xbd, 0x5c, 0x14, 0xd7, 0x3d, 0xc4, 0xc5, 0xc9, 0xbd,
  0xdb, 0xda, 0x84, 0x3d, 0x76, 0x43, 0x36, 0x3e, 0x1f, 0xcc, 0x5e, 0x3e,
  0x8d, 0xb9, 0x4f, 0x3e, 0x9b, 0x8f, 0x20, 0x3c, 0xa1, 0xa4, 0x3c, 0x3c,
  0x9a, 0xfe, 0x09, 0xbe, 0x86, 0xa3, 0x2c, 0xbc, 0x7f, 0xa0, 0xf5, 0x3d,
  0x7f, 0x9a, 0x48, 0x3d, 0xe5, 0x76, 0xbd, 0xbd, 0x41, 0x78, 0xa2, 0x3c,
  0xa8, 0x26, 0xfe, 0x3b, 0x90, 0x22, 0x07, 0xbe, 0xad, 0x64, 0xac, 0x3b,
  0x30, 0x6a, 0x45, 0x3e, 0x4c, 0xea, 0x1e, 0x3e, 0x34, 0xa2, 0x03, 0xbd,
  0x23, 0xa2, 0xfb, 0xbd, 0x5f, 0x72, 0x95, 0x3d, 0x6b, 0x8f, 0x8e, 0xbd,
  0x24, 0xc4, 0xb4, 0xbb, 0x2e, 0xb0, 0x41, 0xbe, 0xe3, 0x64, 0xd2, 0x3d,
  0x93, 0x72, 0x58, 0xbc, 0x56, 0x3c, 0x86, 0xbd, 0x63, 0x7c, 0x35, 0xbd,
  0xfe, 0x7d, 0x11, 0x3e, 0x65, 0x90, 0x57, 0x3e, 0xc0, 0x5b, 0x89, 0x3b,
  0x24, 0xa2, 0xdb, 0xbd, 0x6f, 0x23, 0xe2, 0xbc, 0xdd, 0xa0, 0x73, 0x3e,
  0x31, 0xe2, 0x06, 0x3e, 0xcc, 0x4b, 0x14, 0xbe, 0x5b, 0xe0, 0xec, 0xbd,
  0x9f, 0x9b, 0xb9, 0xbd, 0x20, 0x54, 0xc8, 0xbb, 0xb2, 0x86, 0xd0, 0x3d,
  0x1b, 0xc5, 0xf3, 0xbd, 0x68, 0x29, 0x18, 0xbc, 0x48, 0x75, 0x85, 0x3d,
  0x34, 0xd3, 0x7a, 0xbc, 0x2a, 0x6c, 0x40, 0xbd, 0x2f, 0x69, 0x17, 0x3e,
  0x28, 0x6a, 0x5c, 0x3e, 0x19, 0x7e, 0xa2, 0x3d, 0x68, 0xec, 0x5b, 0x3e,
  0x51, 0x57, 0xef, 0x3d, 0x4d, 0x87, 0x73, 0xbd, 0x7b, 0xf0, 0xde, 0xbd,
  0x1a, 0x39, 0x62, 0x3e, 0xfa, 0xf4, 0x07, 0xbd, 0x47, 0xac, 0x68, 0x3d,
  0xc3, 0x9d, 0x83, 0xbd, 0xed, 0xb6, 0xdf, 0x3d, 0x6a, 0xae, 0x1d, 0xbd,
  0xdb, 0x85, 0x09, 0xbe, 0xcf, 0xac, 0xbf, 0x3d, 0xdd, 0x5d, 0xd3, 0xbd,
  0x22, 0xbd, 0xb2, 0x3d, 0x43, 0xf7, 0x98, 0x3d, 0x46, 0xc2, 0x92, 0x3c,
  0x5d, 0x76, 0x2d, 0xbe, 0x56, 0x98, 0x47, 0xbd, 0x97, 0x0f, 0x16, 0xbe,
  0xa8, 0x18, 0xcd, 0xbd, 0xae, 0xac, 0x5e, 0xbd, 0x3d, 0x8c, 0xb7, 0xbd,
  0xa1, 0x22, 0x3d, 0xbe, 0x3a, 0xb7, 0x1a, 0xbd, 0x31, 0x72, 0x9a, 0x3d,
  0xb9, 0x4c, 0xe0, 0xbd, 0x0a, 0xd0, 0x17, 0x3e, 0xb0, 0x4e, 0x12, 0xbd,
  0x97, 0xbf, 0x83, 0x3d, 0x37, 0x16, 0x4e, 0x3d, 0x0d, 0x1f, 0x35, 0x3d,
  0xd9, 0xbb, 0xec, 0x3c, 0x3c, 0x0f, 0x5a, 0x3e, 0x9d, 0x7a, 0x81, 0xbe,
  0x47, 0xaa, 0xee, 0xbd, 0x6f, 0xde, 0xbf, 0xbc, 0xfa, 0x31, 0x25, 0xbe,
  0x53, 0x40, 0x3c, 0xbd, 0xee, 0x7d, 0x33, 0xbe, 0x8e, 0xc3, 0xff, 0x3d,
  0x1a, 0x4b, 0x0a, 0xbd, 0xa7, 0x1a, 0x51, 0xbd, 0xd6, 0x62, 0x2c, 0xbe,
  0xea, 0x90, 0x93, 0x3d, 0xc4, 0x4e, 0x1d, 0x3e, 0xa9, 0xe4, 0xec, 0xbd,
  0xde, 0x6e, 0xf2, 0xbd, 0x74, 0xb1, 0x08, 0x3d, 0x82, 0xd2, 0x14, 0x3c,
  0x76, 0x2e, 0x1f, 0x3d, 0x8f, 0x2c, 0x08, 0xbe, 0x70, 0xe9, 0x0a, 0x3e,
  0x36, 0xcb, 0x3e, 0xbd, 0xbf, 0xfd, 0x9f, 0xbd, 0x75, 0xb4, 0x95, 0x3d,
  0xbd, 0xe8, 0x2f, 0xbd, 0x12, 0x28, 0x38, 0xbd, 0x34, 0x7f, 0x34, 0xbe,
  0xa7, 0x38, 0x05, 0x3c, 0x79, 0xae, 0xb6, 0xbd, 0xc5, 0x72, 0x15, 0x3e,
  0x19, 0xd1, 0x83, 0xbe, 0xdc, 0x4e, 0x6a, 0x3e, 0x35, 0x39, 0x89, 0x3d,
  0xfa, 0xf5, 0x1c, 0xbe, 0x8b, 0x92, 0x02, 0xbe, 0x9b, 0x1c, 0xb9, 0x3d,
  0xcc, 0x64, 0x3d, 0xbd, 0x3d, 0x7e, 0x17, 0xbc, 0x1e, 0xf7, 0x01, 0x3e,
  0x95, 0x15, 0xe2, 0x3c, 0x0a, 0xb2, 0xa6, 0xbb, 0x2f, 0x7a, 0xbb, 0xbd,
  0xcd, 0xf1, 0x96, 0x3d, 0xec, 0x99, 0x5c, 0x3e, 0xaa, 0x8b, 0xdf, 0xbc,
  0xdf, 0xaa, 0x3a, 0xbe, 0xfd, 0xf6, 0xf0, 0x3d, 0x9c, 0x48, 0x42, 0x3d,
  0x7a, 0xbd, 0x27, 0xbe, 0x24, 0xdb, 0x9e, 0xbc, 0xe4, 0xb8, 0x53, 0xbd,
  0xec, 0x38, 0xe6, 0xba, 0xfa, 0x9a, 0x3d, 0xbd, 0xbb, 0xd2, 0x6a, 0xbe,
  0xad, 0xc7, 0x49, 0x3d, 0x85, 0xd5, 0x61, 0x3e, 0x02, 0x74, 0xcb, 0xbd,
  0x20, 0xab, 0x33, 0x3e, 0x47, 0x17, 0x4a, 0x3e, 0x71, 0x62, 0x12, 0x3c,
  0x94, 0xd5, 0x77, 0xbb, 0x0d, 0xa1, 0xbb, 0xbd, 0x78, 0x45, 0xdc, 0xbd,
  0xe2, 0xeb, 0xf1, 0xba, 0xca, 0x37, 0x9b, 0x3d, 0xc9, 0x0a, 0xd2, 0x3d,
  0x8f, 0xa1, 0x04, 0x3c, 0xaa, 0xbb, 0x5e, 0x3d, 0xa6, 0x08, 0x64, 0x3e,
  0xfa, 0x4a, 0x87, 0xbc, 0xde, 0xb5, 0x80, 0x3d, 0x0c, 0x3a, 0x34, 0x3c,
  0xd4, 0xc1, 0x55, 0x3e, 0x7f, 0xb5, 0x42, 0x3d, 0xcd, 0xdd, 0xb2, 0x3b,
  0x60, 0x27, 0x2e, 0x3e, 0x75, 0xd5, 0xc9, 0xbd, 0x2f, 0x4e, 0xd0, 0x3d,
  0xba, 0x01, 0x51, 0x3e, 0x06, 0xe5, 0x3f, 0x3e, 0x82, 0x21, 0x43, 0x3e,
  0xf1, 0x32, 0x21, 0xbe, 0x41, 0x8b, 0x8a, 0x3e, 0xa9, 0xba, 0xcc, 0x3d,
  0x50, 0x56, 0x2a, 0x3d, 0x41, 0x93, 0xb2, 0x3d, 0x07, 0x30, 0x41, 0x3e,
  0xa8, 0x17, 0xd5, 0xbd, 0x55, 0x06, 0xab, 0x3d, 0x67, 0xb7, 0x8d, 0x3c,
  0xe2, 0x90, 0x0a, 0xbe, 0x0a, 0x0b, 0x0e, 0x3e, 0xc6, 0xf1, 0x13, 0xbe,
  0x61, 0x25, 0x43, 0x3d, 0xb7, 0xc6, 0xe7, 0xbc, 0x0a, 0x68, 0x0c, 0x3d,
  0xc0, 0x28, 0x3f, 0x3d, 0xe7, 0xa2, 0x16, 0xbd, 0x1e, 0xcf, 0x51, 0x3e,
  0x5d, 0x67, 0x6f, 0xbc, 0xac, 0xbc, 0x42, 0xbe, 0x75, 0xc9, 0x89, 0xbe,
  0x78, 0xb9, 0x19, 0xbe, 0x5a, 0x1f, 0x56, 0xbd, 0xcb, 0x82, 0xd4, 0x3d,
  0xf5, 0xdf, 0x66, 0x3d, 0xde, 0xc5, 0xb2, 0x3c, 0x2f, 0x88, 0x3a, 0xbe,
  0xbf, 0xbb, 0x3b, 0x3d, 0x43, 0xea, 0x09, 0x3e, 0xc3, 0x34, 0xc4, 0xbc,
  0x42, 0x37, 0xf3, 0x3d, 0x0e, 0xf2, 0xff, 0xff, 0x04, 0x00, 0x00, 0x00,
  0x80, 0x02, 0x00, 0x00, 0x33, 0xf5, 0x78, 0x3e, 0x1f, 0x37, 0xca, 0x3c,
  0xb6, 0x46, 0x23, 0x3e, 0xaf, 0xce, 0x4a, 0x3e, 0x9d, 0x7b, 0xaa, 0xbe,
  0x09, 0xd1, 0x82, 0xbe, 0x2c, 0xe2, 0xd3, 0xbe, 0x3b, 0x4b, 0x50, 0x3e,
  0x0d, 0xf1, 0x8b, 0xbe, 0x40, 0x1d, 0x24, 0x3e, 0x25, 0xb1, 0x65, 0xbc,
  0xfa, 0x0e, 0xa3, 0x3d, 0xa2, 0x48, 0xb8, 0xbd, 0x6a, 0xcd, 0x4f, 0x3e,
  0x25, 0xef, 0x02, 0xbf, 0x3d, 0x2d, 0x48, 0x3e, 0xa9, 0x4e, 0xb1, 0x3d,
  0x2d, 0xef, 0x64, 0xbd, 0xb2, 0xab, 0x3e, 0xbe, 0xe8, 0x10, 0x8b, 0xbe,
  0xf2, 0x3e, 0x0f, 0xbe, 0x24, 0x34, 0xfd, 0xbe, 0x5b, 0x99, 0x47, 0xbe,
  0xe6, 0x87, 0x91, 0x3e, 0xf1, 0xad, 0x20, 0xbe, 0xd9, 0x88, 0xcc, 0xbe,
  0x73, 0x64, 0xf3, 0xbe, 0xb7, 0x1d, 0xaf, 0x3e, 0x5b, 0x75, 0xd5, 0x3c,
  0x83, 0x8f, 0xc7, 0x3e, 0x30, 0xaf, 0xa9, 0x3e, 0xde, 0xc1, 0xb9, 0xbe,
  0x1f, 0x3c, 0xf3, 0x3e, 0x54, 0x01, 0xdb, 0xbe, 0x87, 0x9b, 0xa5, 0x3d,
  0x2f, 0xd4, 0x1b, 0xbc, 0x88, 0x7d, 0xc5, 0x3d, 0xd1, 0xf2, 0x15, 0x3e,
  0xe0, 0xc9, 0x16, 0x3e, 0xe2, 0xb7, 0x07, 0x3e, 0x72, 0x7e, 0x6e, 0x3d,
  0x19, 0x99, 0xc0, 0xbd, 0xd2, 0xac, 0xd8, 0xbd, 0x45, 0xd6, 0xd3, 0x3d,
  0x00, 0xc6, 0x2d, 0x3e, 0x14, 0x03, 0x1b, 0xbe, 0x5e, 0xc2, 0x65, 0xbd,
  0xd8, 0xec, 0x6f, 0x3a, 0x87, 0x84, 0x0e, 0xbd, 0xe3, 0x6c, 0x4e, 0x3e,
  0x42, 0x9f, 0x9a, 0x3e, 0x63, 0x22, 0xcd, 0xbe, 0x63, 0xbe, 0x5a, 0x3e,
  0xcf, 0x1e, 0x8c, 0x3d, 0xc6, 0xed, 0xbb, 0xbe, 0x21, 0x29, 0xa5, 0x3e,
  0xe0, 0x7e, 0x5b, 0x3e, 0x79, 0x71, 0x99, 0x3e, 0x35, 0xff, 0xa4, 0x3d,
  0xe8, 0xa5, 0x6a, 0xbd, 0xdd, 0xaf, 0xfa, 0xbd, 0x9d, 0x6d, 0x83, 0xbe,
  0x4c, 0xc5, 0x5f, 0x3e, 0x42, 0x32, 0xe4, 0xbd, 0x57, 0xc4, 0xf1, 0xbe,
  0xce, 0xfc, 0x0d, 0xbd, 0xc3, 0x82, 0x65, 0xbd, 0x42, 0x4e, 0xda, 0x3e,
  0xb0, 0xbc, 0xbd, 0xbd, 0xa2, 0xa9, 0x44, 0x3e, 0x98, 0xea, 0x29, 0xbe,
  0xd6, 0x3b, 0xf5, 0xbe, 0x3a, 0x73, 0x6f, 0x3c, 0xac, 0x83, 0xbd, 0x3e,
  0xab, 0xe9, 0x3f, 0x3b, 0x3f, 0x77, 0xc7, 0x3d, 0x9e, 0x7e, 0x9e, 0x3e,
  0xb6, 0x58, 0xa4, 0x3e, 0xe0, 0xa0, 0xca, 0xbd, 0xfd, 0x31, 0x91, 0xbe,
  0xc6, 0x55, 0x8b, 0xbd, 0xd8, 0x7b, 0xc3, 0x3c, 0x0b, 0x51, 0x4d, 0x3d,
  0xaa, 0xe7, 0xee, 0x3e, 0x4b, 0x85, 0xbc, 0x3d, 0x6f, 0xaf, 0x6f, 0x3e,
  0x52, 0xc7, 0xec, 0xbd, 0xd5, 0xbe, 0x88, 0x3b, 0x70, 0x1d, 0x82, 0x3e,
  0x05, 0x2e, 0x5d, 0xbd, 0x6f, 0x58, 0x9a, 0x3e, 0xa8, 0x7c, 0xa2, 0x3e,
  0x7b, 0x4f, 0xb9, 0x3e, 0xb5, 0x7e, 0x8d, 0xbe, 0xfd, 0x32, 0xfe, 0xbb,
  0x7c, 0x8e, 0xae, 0xbd, 0xc4, 0xd2, 0xc9, 0xbd, 0x46, 0xbc, 0x26, 0x3e,
  0xeb, 0xbc, 0x74, 0xbe, 0x17, 0x00, 0x5c, 0xbe, 0xe6, 0x0e, 0xfd, 0x3e,
  0xd5, 0xd5, 0xac, 0xbe, 0xd7, 0x78, 0x92, 0x3e, 0xa6, 0x7e, 0xea, 0x3b,
  0xc4, 0x1a, 0x13, 0x3e, 0x14, 0xf0, 0x98, 0xbe, 0xa0, 0x2d, 0xd4, 0xbe,
  0x95, 0xaa, 0xc2, 0xbd, 0xd9, 0xdf, 0xb6, 0x3d, 0xdf, 0x16, 0x18, 0x3d,
  0x6b, 0x0b, 0x01, 0x3f, 0x3e, 0x20, 0x06, 0x3f, 0xb1, 0x54, 0xa4, 0xbd,
  0xa7, 0x9e, 0xdd, 0x3d, 0xba, 0xef, 0x5f, 0x3e, 0xf4, 0xf8, 0x45, 0x3e,
  0x32, 0x64, 0x3f, 0xbe, 0xb9, 0x75, 0xad, 0xbe, 0x07, 0x94, 0x4e, 0x3e,
  0xd4, 0x1a, 0x05, 0xbe, 0x53, 0xdb, 0x6b, 0x3e, 0x58, 0xfc, 0x13, 0xbe,
  0xa1, 0x20, 0xd6, 0xbe, 0x01, 0xb9, 0xf7, 0xbd, 0x1b, 0x83, 0xcb, 0x3d,
  0xe7, 0x9f, 0x71, 0x3e, 0x73, 0x93, 0x3f, 0xbe, 0x45, 0x83, 0x42, 0x3d,
  0x24, 0x74, 0x85, 0x3e, 0x69, 0xd1, 0x3e, 0xbe, 0xfd, 0xf6, 0xf2, 0x3e,
  0xfe, 0xa9, 0x80, 0x3e, 0x23, 0x25, 0x24, 0x3d, 0xfa, 0x29, 0x90, 0x3e,
  0x89, 0x0c, 0x8a, 0xbe, 0x34, 0x68, 0x7d, 0xbd, 0x94, 0xf8, 0xd0, 0x3e,
  0xca, 0x03, 0x59, 0x3c, 0x84, 0x62, 0x5d, 0xbe, 0xed, 0xd3, 0xa6, 0x3e,
  0x1f, 0x7b, 0x90, 0xbe, 0xf8, 0x3a, 0x34, 0xbd, 0x40, 0x7e, 0x9a, 0xbd,
  0xe4, 0x6d, 0xdb, 0x3e, 0x59, 0x35, 0x7a, 0x3d, 0xa4, 0x10, 0x4d, 0x3e,
  0xbd, 0x3a, 0xd9, 0xbd, 0xc9, 0x2d, 0xb8, 0xbe, 0x22, 0xa7, 0x5e, 0x3d,
  0x59, 0xe5, 0xa9, 0x3e, 0x2a, 0xeb, 0x81, 0x3e, 0x6d, 0x1e, 0x23, 0x3e,
  0x36, 0x90, 0xab, 0x3e, 0xb1, 0x05, 0xdb, 0x3e, 0x93, 0x5a, 0xd6, 0x3a,
  0x81, 0xc2, 0x10, 0xbe, 0xb8, 0xb0, 0x6b, 0xbc, 0x89, 0x45, 0x72, 0x3e,
  0x92, 0x6f, 0xf0, 0x3d, 0x72, 0x46, 0x67, 0x3d, 0x9a, 0xf4, 0xff, 0xff,
  0x04, 0x00, 0x00, 0x00, 0x60, 0x09, 0x00, 0x00, 0x84, 0x03, 0xdd, 0x3d,
  0x67, 0xf8, 0x0d, 0xbd, 0x0e, 0x8f, 0x39, 0xbd, 0x1f, 0x98, 0xeb, 0x3d,
  0xed, 0x79, 0x15, 0x3e, 0x6e, 0x07, 0x23, 0xbe, 0x17, 0xac, 0x92, 0xbe,
  0x54, 0xd0, 0xaa, 0xbb, 0x51, 0xf9, 0x4b, 0xbe, 0xd7, 0x6c, 0x41, 0xbe,
  0xb0, 0x57, 0xac, 0xbe, 0x09, 0x2d, 0x95, 0xbd, 0xf3, 0x33, 0x79, 0xbd,
  0x22, 0x69, 0xd8, 0x3d, 0x90, 0xe8, 0x99, 0x3d, 0xaa, 0x89, 0xb1, 0xbe,
  0x97, 0xc5, 0x92, 0xbe, 0x80, 0x09, 0x35, 0xbd, 0x2d, 0x26, 0xc9, 0x3e,
  0xa2, 0xd3, 0x93, 0x3d, 0xdb, 0x3e, 0x67, 0x3e, 0x96, 0x47, 0x55, 0xbe,
  0x89, 0x7b, 0x98, 0x3e, 0x61, 0x03, 0xb0, 0xbe, 0x4a, 0x53, 0x3f, 0x3e,
  0xa3, 0xfa, 0x8a, 0xbe, 0xda, 0x58, 0x4d, 0x3e, 0x51, 0xd3, 0x1f, 0xbd,
  0xa8, 0x6f, 0xd3, 0x3d, 0x40, 0x25, 0x99, 0x3e, 0xbd, 0xc6, 0x99, 0xbe,
  0x8e, 0x8e, 0xe1, 0xbd, 0x9d, 0x1c, 0x49, 0xbd, 0x84, 0x25, 0x9a, 0x3c,
  0x9a, 0x95, 0x15, 0xbd, 0xaa, 0x8c, 0x59, 0x3e, 0x85, 0xd6, 0x4d, 0x3d,
  0x16, 0xb1, 0x31, 0x3e, 0x81, 0x17, 0x58, 0xbe, 0x25, 0xd3, 0xfb, 0xbc,
  0x95, 0xa8, 0xb5, 0x3d, 0x5b, 0xb2, 0xaa, 0xbd, 0x44, 0x82, 0x6b, 0xbd,
  0xa5, 0x97, 0x5a, 0x3e, 0xff, 0xd7, 0x3a, 0x3a, 0xa4, 0xe9, 0xaa, 0xbd,
  0xeb, 0x22, 0x86, 0x3e, 0x09, 0x33, 0xbe, 0x3b, 0x3c, 0x16, 0x84, 0x3d,
  0xee, 0xff, 0x3b, 0xbe, 0xa0, 0xe8, 0x02, 0x3d, 0xd4, 0x87, 0x83, 0xbe,
  0x9f, 0x56, 0x4b, 0xbe, 0x22, 0x55, 0x22, 0x3e, 0x88, 0xf6, 0x56, 0xbe,
  0xbb, 0x48, 0xca, 0xbc, 0xef, 0x65, 0xb0, 0xbd, 0x1d, 0x0b, 0xd7, 0xbd,
  0x74, 0xb6, 0x99, 0xbc, 0xec, 0x8a, 0x98, 0xbe, 0x70, 0xd6, 0x21, 0x3e,
  0x3b, 0xda, 0x74, 0x3e, 0xe7, 0xba, 0x67, 0xbe, 0x75, 0x02, 0x8d, 0xbe,
  0xab, 0x76, 0xc5, 0x3d, 0xe9, 0x1d, 0xb4, 0x3e, 0x65, 0x0c, 0xee, 0x3d,
  0x35, 0xa5, 0x47, 0x3d, 0x7b, 0x7d, 0xfd, 0xbd, 0x61, 0xe8, 0x93, 0xbd,
  0x66, 0x1d, 0x43, 0xbe, 0xa2, 0xac, 0x97, 0x3e, 0xd5, 0x49, 0xdf, 0x3d,
  0x6c, 0x43, 0x1c, 0x3d, 0xaa, 0xb5, 0x37, 0xbe, 0xa3, 0xdc, 0x8b, 0xbe,
  0x93, 0xa3, 0x03, 0x3e, 0x5a, 0xbc, 0xba, 0xbd, 0xb6, 0x49, 0x80, 0xbe,
  0xca, 0x49, 0x97, 0x3e, 0xdb, 0xaa, 0x93, 0x3e, 0x0e, 0xb0, 0x8b, 0xbe,
  0x26, 0x7f, 0x78, 0x3e, 0x87, 0xd9, 0x62, 0x3e, 0xfc, 0xd6, 0x77, 0xbe,
  0x72, 0x83, 0x32, 0x3e, 0xc4, 0xc1, 0x6f, 0x3d, 0xdb, 0x65, 0x50, 0xbd,
  0xc8, 0xc6, 0x80, 0xbd, 0x94, 0x2a, 0x73, 0xbd, 0x14, 0xfd, 0xe5, 0x3d,
  0x10, 0xfc, 0x9a, 0xbe, 0x99, 0x66, 0x70, 0xbe, 0x2f, 0xda, 0x9a, 0xbe,
  0xf4, 0x36, 0xed, 0xbd, 0x83, 0x5a, 0x2f, 0xbe, 0x16, 0xc1, 0x2e, 0xbe,
  0xd9, 0x5e, 0x06, 0xbe, 0x90, 0xbf, 0xb4, 0x3d, 0x97, 0xa3, 0x78, 0xbd,
  0xd9, 0xd8, 0x8f, 0x3e, 0x34, 0x3b, 0x13, 0x3e, 0x1b, 0xa5, 0xb4, 0xbd,
  0xf7, 0xad, 0xc7, 0x3d, 0xae, 0x66, 0xec, 0x3d, 0x27, 0xe8, 0x87, 0xbd,
  0x38, 0x3f, 0xd1, 0x3d, 0xdf, 0x33, 0x7e, 0xbd, 0x5d, 0xdd, 0x86, 0xbd,
  0xf9, 0x35, 0x92, 0x3e, 0x58, 0x33, 0x93, 0x3e, 0x2e, 0x6d, 0x1c, 0xbe,
  0xa3, 0xa9, 0xc1, 0xba, 0xa2, 0x3d, 0x68, 0x3e, 0x45, 0x39, 0x54, 0x3c,
  0x6c, 0xf4, 0x14, 0xbd, 0x76, 0x60, 0x33, 0xbe, 0xa0, 0xa5, 0x36, 0x3e,
  0x2a, 0x68, 0x33, 0xbe, 0xff, 0x13, 0xab, 0x3d, 0xed, 0x85, 0xcd, 0xbe,
  0x87, 0x3a, 0x56, 0xbe, 0x0d, 0x09, 0x11, 0xbe, 0x10, 0x05, 0x06, 0xbe,
  0x41, 0x2e, 0xa8, 0xbe, 0x37, 0xe2, 0xe7, 0xba, 0x30, 0x5f, 0xb3, 0x3d,
  0xe5, 0x7a, 0x9f, 0x3d, 0x83, 0xd8, 0x7e, 0xbd, 0x0f, 0x4b, 0xb2, 0xbc,
  0xfe, 0x50, 0x53, 0x3e, 0x3a, 0xc1, 0x7c, 0x3e, 0xed, 0xd9, 0xea, 0x3d,
  0xd0, 0x1d, 0x8a, 0xbe, 0x15, 0x7e, 0xab, 0xbe, 0x72, 0x01, 0x49, 0x3d,
  0x7c, 0x9b, 0x56, 0x3e, 0x73, 0xc0, 0x44, 0x3c, 0x47, 0x66, 0x90, 0x3d,
  0x22, 0xf4, 0x75, 0x3d, 0xf8, 0xff, 0x57, 0x3d, 0x28, 0x64, 0x06, 0x3d,
  0xb6, 0x01, 0x84, 0x3c, 0x9e, 0xdf, 0x05, 0xbd, 0xe7, 0xa0, 0x13, 0x3e,
  0xde, 0xb0, 0x04, 0xbe, 0x26, 0x93, 0x5f, 0x3e, 0x27, 0x8c, 0x4e, 0xbe,
  0xe3, 0x58, 0x84, 0x3e, 0x51, 0xbe, 0xb2, 0x3d, 0xd4, 0x8f, 0x63, 0x3e,
  0x57, 0xe6, 0xf6, 0x3d, 0x3b, 0x37, 0x54, 0xbe, 0x1c, 0xc4, 0xb9, 0x3d,
  0x21, 0x6b, 0x95, 0xbe, 0xea, 0xe3, 0x12, 0x3d, 0x1e, 0x7d, 0xf7, 0xbd,
  0x3a, 0x08, 0x26, 0xbe, 0x0d, 0xc6, 0xad, 0xbd, 0x54, 0xd6, 0x61, 0xbd,
  0x63, 0xbc, 0xe6, 0xbd, 0x03, 0x1c, 0x20, 0x3d, 0x79, 0xfb, 0x82, 0xbd,
  0xfb, 0x64, 0x76, 0x3d, 0x27, 0xdd, 0x05, 0xbe, 0xf5, 0xc5, 0x89, 0x3e,
  0x37, 0x35, 0xad, 0xbd, 0x7d, 0xe9, 0x16, 0xbd, 0xce, 0x19, 0x08, 0x3e,
  0xad, 0x02, 0xa1, 0xbe, 0x04, 0xa0, 0x9d, 0x3e, 0xfc, 0xd7, 0x11, 0x3e,
  0x86, 0x8b, 0x49, 0xbd, 0xe0, 0xed, 0xf4, 0xbd, 0x76, 0x56, 0x58, 0x3c,
  0x8a, 0x36, 0x0d, 0xbe, 0xfc, 0x75, 0x8a, 0x3d, 0xb1, 0x25, 0x99, 0x3d,
  0xf2, 0x91, 0x61, 0xbd, 0xac, 0xb5, 0xf8, 0x3c, 0x79, 0x6f, 0xb2, 0x3e,
  0xc6, 0x74, 0x9e, 0xbd, 0x24, 0x5d, 0xa6, 0x3d, 0xd7, 0x86, 0x04, 0xbe,
  0xb8, 0x8b, 0x2b, 0x3e, 0xe9, 0x26, 0x68, 0xbd, 0x94, 0xcc, 0x10, 0x3e,
  0x45, 0x3d, 0x16, 0x3e, 0xb4, 0x0a, 0x41, 0x3d, 0xf5, 0x0f, 0xa2, 0x3e,
  0x76, 0xaf, 0x7b, 0x3d, 0xeb, 0xa5, 0x5c, 0x3c, 0x2c, 0x57, 0x34, 0x3d,
  0xc8, 0xc7, 0x93, 0x3e, 0xbd, 0x9e, 0x9b, 0x3e, 0xe0, 0x50, 0xc2, 0x3d,
  0x20, 0x17, 0x09, 0x3e, 0xcd, 0xf4, 0x0c, 0xbc, 0xc0, 0x17, 0xca, 0xbd,
  0xd8, 0x75, 0x9c, 0xbe, 0x4f, 0xcc, 0xb3, 0x3d, 0xb9, 0x17, 0x53, 0xbd,
  0xd6, 0xc8, 0x46, 0xbd, 0x42, 0xf2, 0x57, 0x3c, 0x0b, 0xfb, 0x24, 0x3e,
  0x74, 0x00, 0x0c, 0x3e, 0xa6, 0x0f, 0x9d, 0x3d, 0xf7, 0x79, 0x7b, 0xbe,
  0x24, 0xac, 0xad, 0x3e, 0xf3, 0xef, 0x2a, 0xbd, 0x55, 0xa6, 0xb2, 0x3d,
  0xa0, 0xfd, 0x77, 0xbe, 0x52, 0x84, 0x41, 0x3e, 0x2a, 0x54, 0xb3, 0x3e,
  0xde, 0x48, 0x43, 0xbe, 0x2b, 0xf7, 0xa8, 0xbe, 0x93, 0x60, 0x6d, 0x3e,
  0xb9, 0xfa, 0x8e, 0x3e, 0xfd, 0x21, 0x71, 0x3e, 0xa2, 0x54, 0x84, 0x3e,
  0xb6, 0x22, 0xee, 0xbb, 0x58, 0x7c, 0x8c, 0xbe, 0x6d, 0x5d, 0x6b, 0xbe,
  0xe7, 0x5a, 0x6b, 0x3d, 0xd6, 0x8e, 0xfc, 0x3d, 0x8b, 0x9f, 0xa6, 0x3e,
  0x83, 0x77, 0x3b, 0x3e, 0x06, 0x6f, 0x23, 0xbd, 0x90, 0xaf, 0x00, 0xbe,
  0x77, 0x97, 0x29, 0x3e, 0x23, 0x2b, 0x7c, 0x3d, 0xfe, 0xc5, 0x38, 0x3d,
  0xf3, 0xf7, 0xbf, 0x3d, 0x1e, 0x3f, 0x28, 0xbd, 0xb0, 0x8a, 0xe8, 0x3c,
  0x9c, 0x01, 0x52, 0x3e, 0xc8, 0x6c, 0x40, 0xbe, 0x6b, 0x73, 0xab, 0x3d,
  0xd4, 0xa7, 0x7c, 0x3e, 0xbe, 0xec, 0x36, 0x3e, 0xd2, 0x07, 0xb6, 0x3d,
  0x92, 0x5a, 0xbc, 0xbb, 0xa9, 0xe2, 0x58, 0x3d, 0x79, 0xf9, 0xa2, 0x3d,
  0x20, 0x4c, 0xc0, 0xbe, 0xab, 0xdd, 0xa2, 0xbd, 0x34, 0x2e, 0xc8, 0xbe,
  0xc9, 0xf8, 0xbc, 0xbd, 0xda, 0x7b, 0xdf, 0x3b, 0x55, 0x21, 0x38, 0x3e,
  0xb0, 0xb2, 0x10, 0x3e, 0xa6, 0x6a, 0x3a, 0xbd, 0x06, 0x7c, 0xad, 0x3e,
  0x9c, 0x78, 0xfe, 0x3d, 0xe1, 0xc7, 0x8d, 0x3d, 0x84, 0x0f, 0x80, 0xbe,
  0x7f, 0x5c, 0xa4, 0xbe, 0xd0, 0x00, 0x54, 0x3e, 0x76, 0xb2, 0x7c, 0xbb,
  0x55, 0x2c, 0xd5, 0xbd, 0x7d, 0xbc, 0x9d, 0xbe, 0xac, 0xa4, 0xf0, 0x3d,
  0x70, 0x1f, 0x5e, 0xbe, 0x4e, 0x95, 0x89, 0xbe, 0xee, 0xd2, 0xfb, 0xbd,
  0x85, 0x82, 0x59, 0xbe, 0xf7, 0x28, 0x9f, 0xbe, 0x1f, 0x8b, 0xe5, 0xbd,
  0xb8, 0x73, 0x91, 0x3d, 0xec, 0x8c, 0xdb, 0xbd, 0xb4, 0x0a, 0xd2, 0x3d,
  0x8e, 0x59, 0x7c, 0x3e, 0x41, 0x91, 0x89, 0xbe, 0xff, 0x13, 0xa4, 0xbd,
  0xf8, 0xd8, 0x03, 0xbd, 0xa3, 0x74, 0x62, 0xbe, 0xe2, 0x0d, 0xc5, 0xbd,
  0x3a, 0x54, 0x20, 0xbe, 0x51, 0x69, 0x1b, 0xbe, 0x1b, 0x84, 0x39, 0xbc,
  0xf6, 0x92, 0x88, 0xbd, 0xc8, 0xfe, 0xe6, 0x3b, 0xfe, 0xef, 0xd1, 0x3d,
  0x62, 0x40, 0x2b, 0x3e, 0xee, 0x25, 0x4e, 0x3e, 0x55, 0x50, 0x9e, 0xbb,
  0xd0, 0x32, 0x11, 0xbe, 0xe2, 0x12, 0xa9, 0xbd, 0xc4, 0x0b, 0xed, 0xbc,
  0x61, 0x49, 0x1f, 0x3d, 0x77, 0x90, 0x25, 0xbe, 0xfb, 0x11, 0x03, 0xbe,
  0xc4, 0x8f, 0xc9, 0xbc, 0x74, 0x32, 0x01, 0xbe, 0xcc, 0x53, 0x46, 0x3e,
  0x1b, 0xcd, 0x94, 0xbe, 0xf3, 0x87, 0x96, 0xbe, 0x10, 0x17, 0x29, 0x3e,
  0x02, 0x73, 0x04, 0x3d, 0xfc, 0xfc, 0x33, 0x3e, 0xd5, 0xc9, 0x3f, 0xbe,
  0x95, 0xf3, 0xc4, 0xbe, 0x0d, 0x87, 0xdd, 0xbd, 0x0a, 0x72, 0xaa, 0xbd,
  0x98, 0x27, 0xaa, 0x3d, 0x3c, 0xe9, 0x31, 0xbd, 0xcf, 0xb7, 0x3e, 0x3e,
  0xcd, 0x03, 0xc3, 0x3e, 0xbf, 0x40, 0xd5, 0x3e, 0xd0, 0xed, 0x15, 0xbe,
  0xcb, 0x57, 0x01, 0x3e, 0x3d, 0x9c, 0x87, 0xbd, 0x82, 0x0b, 0xb2, 0xbd,
  0x58, 0x4e, 0x17, 0x3e, 0xf6, 0x6a, 0xee, 0x3d, 0xb4, 0x6c, 0x40, 0xbd,
  0x8b, 0xa4, 0x59, 0xbe, 0x70, 0x64, 0x7a, 0x3d, 0xfc, 0x66, 0xdd, 0xbd,
  0xa3, 0x8a, 0xc0, 0x3d, 0x35, 0x01, 0x67, 0x3e, 0x90, 0xef, 0x11, 0xbe,
  0xb5, 0x6c, 0xd9, 0xbd, 0x55, 0xa4, 0x70, 0xbe, 0x7f, 0x2d, 0x18, 0xbc,
  0x03, 0xc4, 0x91, 0xbd, 0xe3, 0x4c, 0x45, 0x3e, 0xb3, 0x29, 0x0c, 0xbd,
  0xb0, 0x9c, 0x4a, 0xbe, 0xe5, 0x0e, 0x7a, 0x3e, 0x95, 0xe9, 0xb8, 0xbc,
  0xd1, 0xc6, 0x39, 0x3d, 0xb6, 0x41, 0xb9, 0x3d, 0xbe, 0x32, 0x37, 0xbe,
  0xdc, 0x64, 0x01, 0xbe, 0x92, 0x51, 0x4d, 0xbe, 0xd0, 0x9c, 0x5a, 0xbe,
  0xb1, 0x26, 0x37, 0xbe, 0x54, 0x0f, 0xaf, 0x3d, 0xe8, 0x74, 0x13, 0xbd,
  0xc8, 0x43, 0x72, 0x3e, 0x1b, 0x0c, 0xfb, 0xbc, 0x37, 0xdd, 0xcf, 0x3d,
  0x59, 0x39, 0xbe, 0xbd, 0x09, 0xbc, 0xfe, 0x3d, 0xb6, 0xe3, 0x9a, 0x3d,
  0x9b, 0x67, 0x0e, 0xbe, 0x14, 0x7f, 0xe9, 0xbd, 0xa7, 0x6d, 0x8e, 0x3e,
  0xdc, 0x97, 0xbb, 0xbd, 0x5f, 0x5a, 0x7e, 0x3d, 0xb9, 0x81, 0x1f, 0xbe,
  0x30, 0x63, 0x0f, 0x3e, 0x4e, 0x82, 0x04, 0xbe, 0xaa, 0x2b, 0x33, 0xbe,
  0x12, 0x29, 0x1f, 0x3d, 0x5e, 0xc2, 0x4e, 0xbe, 0x5c, 0x05, 0x1e, 0x3c,
  0xc7, 0x90, 0x3c, 0xbe, 0x09, 0xb1, 0xf0, 0xbd, 0x27, 0xe2, 0xcc, 0xbd,
  0x93, 0x4f, 0x49, 0x3c, 0x9f, 0x4d, 0x2b, 0xbc, 0x8b, 0x6a, 0xe3, 0x3d,
  0x2e, 0x97, 0x72, 0xbe, 0x3d, 0x81, 0x44, 0xbe, 0xcc, 0xe2, 0x35, 0x3d,
  0xcf, 0x57, 0xe4, 0x3d, 0x93, 0xbc, 0xd2, 0xbd, 0x5f, 0xd0, 0x06, 0x3e,
  0x29, 0xfa, 0x15, 0xbe, 0xe0, 0x34, 0x70, 0x3b, 0xa4, 0xf8, 0xd1, 0x3d,
  0x1e, 0x49, 0xc9, 0xbd, 0xdc, 0xe9, 0xcf, 0xbd, 0x06, 0xcd, 0x69, 0xbe,
  0xd6, 0xb0, 0xea, 0x3d, 0x71, 0x48, 0x70, 0xbd, 0x40, 0x58, 0xe3, 0xbd,
  0xd3, 0xef, 0xa7, 0xbe, 0xba, 0x92, 0x94, 0x3d, 0x0f, 0x24, 0x1e, 0x3e,
  0x12, 0x74, 0x84, 0x3d, 0xef, 0x0b, 0x8a, 0x3e, 0xb4, 0xe6, 0x9f, 0x3e,
  0x5f, 0xe3, 0x9f, 0x3e, 0xe5, 0x97, 0xd4, 0x3d, 0x99, 0x97, 0x56, 0xbe,
  0xf3, 0xfd, 0xbe, 0xbb, 0xbe, 0x28, 0x14, 0x3e, 0x96, 0x8b, 0xdf, 0xbd,
  0x3d, 0xd9, 0xaa, 0x3e, 0x99, 0x11, 0xe7, 0xbd, 0x42, 0x6e, 0x68, 0xbe,
  0xa8, 0x43, 0xd7, 0x3e, 0xff, 0xb9, 0x8f, 0xbe, 0x68, 0xc7, 0x62, 0xbc,
  0x0a, 0x67, 0xbb, 0x3e, 0xf6, 0x7a, 0xf1, 0xbd, 0x34, 0x39, 0x91, 0x3e,
  0xa2, 0x89, 0xac, 0xbd, 0x78, 0x53, 0x9d, 0xbe, 0x08, 0x94, 0x10, 0xbe,
  0x31, 0x83, 0x35, 0x3d, 0x4a, 0xc6, 0x34, 0x3e, 0x7e, 0x66, 0x8e, 0x3e,
  0x77, 0xab, 0xdb, 0x3d, 0x61, 0xa4, 0x84, 0xbd, 0x24, 0x68, 0x01, 0x3e,
  0x88, 0x85, 0xd5, 0xbd, 0x97, 0xc6, 0xff, 0x3d, 0x2b, 0x58, 0x96, 0x3e,
  0x6c, 0x55, 0x33, 0x3d, 0x59, 0xec, 0x59, 0x3e, 0xcf, 0x0d, 0x52, 0x3e,
  0x68, 0xef, 0x9d, 0x3d, 0x04, 0x6e, 0x7f, 0xbe, 0xdc, 0xaf, 0xf6, 0x3d,
  0x49, 0x48, 0x4e, 0x3e, 0x18, 0xd9, 0x5d, 0x3e, 0x82, 0x8b, 0x5f, 0x3e,
  0xd6, 0xab, 0x62, 0x3e, 0x15, 0x22, 0x9f, 0x3d, 0xd9, 0xe7, 0xb8, 0xbd,
  0x4b, 0x63, 0x23, 0xbe, 0xd4, 0x18, 0x12, 0x3b, 0xe4, 0xaa, 0x76, 0x3e,
  0x7d, 0xfb, 0x06, 0x3e, 0x2a, 0x00, 0x9a, 0xbc, 0xb7, 0x75, 0x32, 0x3e,
  0xb7, 0x97, 0xfd, 0xbb, 0x9f, 0xb4, 0x2c, 0x3e, 0xf7, 0x1a, 0x5c, 0x3e,
  0xb6, 0x77, 0xc0, 0x3d, 0x47, 0xe1, 0x75, 0x3d, 0xba, 0xf9, 0xea, 0x3d,
  0x76, 0xe9, 0x69, 0xbe, 0xe6, 0x6d, 0x55, 0x3e, 0x20, 0x8d, 0xdd, 0x3d,
  0xc3, 0xac, 0x0c, 0xbb, 0x31, 0x87, 0x94, 0x3e, 0xdd, 0x7e, 0x82, 0x3d,
  0x89, 0x28, 0x1a, 0xbe, 0xba, 0x1a, 0x7a, 0xbe, 0x01, 0xc2, 0x7a, 0x3d,
  0x5d, 0x79, 0xb2, 0x3e, 0x19, 0x0f, 0xaf, 0xbe, 0x28, 0xad, 0x11, 0xbb,
  0x5f, 0xb4, 0xa6, 0x3d, 0x9a, 0xae, 0xa3, 0xbe, 0x05, 0x5f, 0x4a, 0x3e,
  0x59, 0x4e, 0xc3, 0xbd, 0xde, 0x61, 0xa6, 0x3d, 0xe0, 0x05, 0x1d, 0xbe,
  0x56, 0x7c, 0x91, 0xbe, 0x99, 0xbb, 0x24, 0xbe, 0x44, 0x64, 0xdd, 0x3d,
  0xd0, 0x9f, 0x42, 0x3e, 0xd1, 0xe2, 0x1f, 0x3e, 0x0f, 0xee, 0xaf, 0x3e,
  0xac, 0x38, 0x51, 0xbe, 0xaf, 0x58, 0x9e, 0x3d, 0xc5, 0x29, 0xc2, 0x3d,
  0x37, 0xdf, 0x17, 0xbe, 0xcd, 0xf3, 0x67, 0x3e, 0x33, 0x89, 0xd9, 0xbd,
  0xf3, 0x9a, 0xa2, 0xbe, 0x87, 0x35, 0xf1, 0x3c, 0x05, 0xf1, 0x18, 0xbe,
  0x0e, 0x97, 0x35, 0xbe, 0x70, 0x59, 0x73, 0x3d, 0x0a, 0x6f, 0x9d, 0xbe,
  0xef, 0x3d, 0xc3, 0xbd, 0xe8, 0xe6, 0xb0, 0xbd, 0x2c, 0xaa, 0x99, 0xbe,
  0xd6, 0x12, 0xa6, 0x3d, 0x02, 0x16, 0x76, 0xbe, 0x0a, 0xd3, 0x57, 0xbe,
  0xd5, 0xd2, 0xae, 0xbd, 0x07, 0xfa, 0x65, 0xbe, 0xee, 0x43, 0x35, 0xbc,
  0x56, 0x20, 0x90, 0x3e, 0x85, 0x66, 0x32, 0x3e, 0x64, 0x41, 0xb0, 0xbe,
  0x00, 0xe7, 0x1e, 0x3e, 0x0d, 0x61, 0x93, 0x3d, 0xaf, 0x63, 0x48, 0xbe,
  0x1e, 0x8d, 0xb4, 0xbb, 0x8d, 0x3a, 0x04, 0x3e, 0xdc, 0xe7, 0x3c, 0x3e,
  0x9d, 0xde, 0x1a, 0xbe, 0x14, 0x4e, 0x0b, 0xbe, 0x1b, 0xfd, 0x6c, 0xbe,
  0xc6, 0xc4, 0x62, 0xbd, 0x58, 0xf8, 0x8f, 0x3d, 0x60, 0xe4, 0x58, 0x3e,
  0x6e, 0x7b, 0x5f, 0xbe, 0x0a, 0xfc, 0x28, 0xbe, 0x12, 0x6f, 0x1c, 0x3e,
  0x46, 0xdf, 0xf2, 0xbd, 0xbb, 0x4f, 0x7c, 0xbd, 0x59, 0x5a, 0xc4, 0x3e,
  0x9b, 0xdb, 0x99, 0x3e, 0x49, 0xfe, 0x9a, 0x3d, 0xcf, 0x3f, 0xb3, 0xbc,
  0x13, 0x9b, 0x77, 0x3d, 0xc1, 0x31, 0xd4, 0xbd, 0x34, 0x0c, 0x36, 0xbe,
  0xe0, 0x4c, 0xcf, 0xbd, 0xa1, 0x44, 0x22, 0x3e, 0x56, 0x00, 0x3a, 0x3d,
  0xb5, 0xbe, 0xb5, 0xbb, 0x71, 0x34, 0x9a, 0x3e, 0x37, 0x39, 0x05, 0xbe,
  0x3b, 0x4c, 0x3f, 0xbe, 0x85, 0x74, 0x99, 0xbe, 0xae, 0x95, 0xa1, 0xbe,
  0x96, 0x76, 0x03, 0xbe, 0xa9, 0x0e, 0x6a, 0xbd, 0x1e, 0x5f, 0x18, 0xbe,
  0x47, 0x62, 0x67, 0x3e, 0xa8, 0xaa, 0x42, 0xbe, 0x54, 0xc2, 0x04, 0x3d,
  0x92, 0xae, 0xcd, 0xbc, 0x7e, 0x9c, 0xcc, 0xbd, 0x8d, 0xa1, 0x0b, 0xbe,
  0xdf, 0x67, 0xfb, 0x3d, 0x9d, 0x87, 0x27, 0xbe, 0x2e, 0xf5, 0xe9, 0x3d,
  0xb0, 0xf7, 0x07, 0xbe, 0x13, 0x9d, 0x94, 0xbd, 0xf1, 0xf5, 0xef, 0x3d,
  0x0f, 0xb1, 0x7f, 0xbd, 0xd3, 0x84, 0xf6, 0x3d, 0xa1, 0x8d, 0x15, 0xbe,
  0x77, 0xb0, 0x7a, 0xbc, 0x81, 0x37, 0x2f, 0xbe, 0xe5, 0x31, 0x8e, 0xbd,
  0xb4, 0x81, 0xa1, 0x3c, 0x09, 0xea, 0xfd, 0x3d, 0x04, 0xc1, 0x53, 0x3d,
  0xee, 0xdd, 0xad, 0x3d, 0x5e, 0x50, 0x4e, 0xbe, 0x1a, 0x84, 0xdc, 0xbd,
  0x9f, 0x7a, 0x2b, 0x3e, 0x57, 0x1a, 0xfc, 0x3a, 0xcc, 0x69, 0x01, 0x3e,
  0xd4, 0x95, 0x70, 0xbd, 0x88, 0x1e, 0xa1, 0xbe, 0x68, 0xc7, 0x10, 0xbe,
  0x22, 0x0c, 0x49, 0x3d, 0x7d, 0x48, 0x71, 0x3d, 0xa9, 0x5b, 0xa0, 0x3d,
  0xb4, 0xbd, 0x43, 0xbe, 0xf0, 0x42, 0x88, 0x3e, 0xce, 0xbb, 0xce, 0x3e,
  0x8f, 0x28, 0x80, 0xbc, 0xb3, 0x67, 0x6f, 0x3c, 0xcc, 0x1b, 0xa0, 0xbd,
  0xba, 0xf1, 0x41, 0xbd, 0xae, 0x00, 0xab, 0xbd, 0x58, 0x96, 0x0f, 0xbd,
  0x41, 0x64, 0xbc, 0x3d, 0xa3, 0x85, 0x30, 0x3d, 0xdb, 0xee, 0xa6, 0x3e,
  0xfe, 0x96, 0x80, 0xbd, 0x7e, 0x30, 0x50, 0x3e, 0x8b, 0xa0, 0x82, 0x3d,
  0x63, 0xb7, 0xaf, 0xbd, 0x68, 0xc6, 0x6c, 0x3e, 0x83, 0x8d, 0xcb, 0x3e,
  0x3b, 0x37, 0xc3, 0xbc, 0x62, 0xff, 0x51, 0x3e, 0xf6, 0x01, 0xac, 0xbe,
  0x76, 0x7a, 0x79, 0x3e, 0x8e, 0x42, 0x5b, 0x3e, 0x2c, 0xa7, 0xf1, 0xbd,
  0xc4, 0xfd, 0xb5, 0x3d, 0x9b, 0x64, 0x7d, 0xbe, 0x7e, 0x08, 0x09, 0x3d,
  0x3e, 0x82, 0xbb, 0xbb, 0x6c, 0x66, 0x99, 0xbe, 0x62, 0x36, 0x33, 0x3e,
  0x61, 0x91, 0x07, 0x3d, 0xd5, 0x4b, 0x03, 0xbe, 0x5c, 0xbd, 0xb0, 0x3b,
  0xe0, 0xdb, 0xd8, 0xbd, 0x2a, 0xf7, 0x5e, 0x3d, 0xd3, 0xdb, 0x95, 0xbd,
  0xdc, 0x04, 0x8c, 0xbe, 0xb3, 0x81, 0x23, 0x3e, 0x20, 0xc4, 0x63, 0xbd,
  0x45, 0x94, 0x3b, 0x3d, 0xb1, 0x5f, 0x87, 0xbe, 0x96, 0x4c, 0x31, 0x3e,
  0x66, 0xb9, 0x82, 0xbe, 0xd2, 0x23, 0x66, 0x3d, 0xdf, 0xd3, 0xb0, 0x3a,
  0x9c, 0x06, 0x26, 0xbe, 0x46, 0xab, 0x76, 0x3e, 0x06, 0xfe, 0xff, 0xff,
  0x04, 0x00, 0x00, 0x00, 0xf0, 0x00, 0x00, 0x00, 0x16, 0x81, 0x65, 0xbb,
  0xa2, 0x81, 0xd1, 0xbd, 0x4d, 0xa3, 0x41, 0xbe, 0x62, 0xee, 0x27, 0x3e,
  0x2b, 0xad, 0xf2, 0xbe, 0x89, 0x0f, 0x95, 0x3c, 0x23, 0x0f, 0x53, 0xbe,
  0x7e, 0x34, 0x6d, 0xbd, 0x82, 0xad, 0xeb, 0xbe, 0xa6, 0x2c, 0x50, 0x3e,
  0xb3, 0xab, 0x19, 0x3e, 0x1b, 0x75, 0x40, 0x3e, 0xb0, 0x74, 0x10, 0xbe,
  0xd8, 0x3d, 0x8c, 0xbe, 0xf9, 0xa6, 0x27, 0xbe, 0xc6, 0x4d, 0x17, 0xbe,
  0x41, 0xed, 0x1f, 0xbe, 0xfb, 0x65, 0x49, 0xbe, 0xb0, 0x47, 0xed, 0xbd,
  0x5e, 0x6b, 0x61, 0xbe, 0xfb, 0xb4, 0x1c, 0x3d, 0xe2, 0x89, 0x88, 0x3e,
  0x54, 0x4e, 0x9a, 0xbe, 0x94, 0xf4, 0xc0, 0xba, 0x5c, 0xe6, 0xd9, 0x3d,
  0xf7, 0x53, 0xbc, 0x3d, 0x92, 0x32, 0x5f, 0x3e, 0x47, 0x9d, 0xb0, 0x3e,
  0x71, 0xa8, 0x9f, 0x3c, 0x4e, 0xad, 0x9b, 0xbe, 0x3d, 0xfd, 0x19, 0x3e,
  0xd2, 0xd0, 0xd7, 0x3e, 0xe2, 0x53, 0x98, 0xbe, 0x7c, 0xaf, 0xc3, 0xbd,
  0x6b, 0x59, 0x4e, 0xbe, 0xc4, 0x8e, 0xd0, 0x3e, 0x77, 0x8c, 0xe6, 0x3d,
  0xa6, 0xc8, 0xb0, 0x3e, 0xc6, 0xcb, 0x3a, 0x3e, 0x68, 0x08, 0xa9, 0xbd,
  0x1f, 0xaa, 0x8a, 0xbe, 0x99, 0x7f, 0x4e, 0xbe, 0x3e, 0x67, 0xb3, 0x3d,
  0xf6, 0xd1, 0x5b, 0x3d, 0x3a, 0xb6, 0x85, 0xbd, 0x6e, 0xc8, 0x86, 0x3e,
  0x28, 0x4e, 0xa1, 0x3e, 0xb1, 0x4f, 0xc2, 0xbe, 0xce, 0xed, 0x8f, 0x3e,
  0x24, 0xc9, 0x2a, 0x3e, 0x13, 0x3d, 0x6e, 0xbd, 0x4c, 0x02, 0x6e, 0xbe,
  0x9d, 0xa7, 0xeb, 0x3e, 0x61, 0x13, 0x0d, 0x3e, 0x5d, 0x3e, 0xc5, 0x3d,
  0x65, 0x0c, 0x95, 0x3e, 0xd5, 0x95, 0x18, 0xbc, 0x42, 0xd8, 0xdb, 0x3d,
  0x7c, 0x5b, 0x04, 0x3e, 0xc0, 0xd2, 0xc7, 0xbd, 0x02, 0xff, 0xff, 0xff,
  0x04, 0x00, 0x00, 0x00, 0x50, 0x00, 0x00, 0x00, 0x9c, 0xee, 0x6b, 0xba,
  0x92, 0x62, 0xc8, 0x3b, 0xe8, 0xd0, 0x6e, 0xbc, 0x98, 0xcc, 0xae, 0x3c,
  0x81, 0x04, 0x01, 0xbc, 0x5b, 0x3f, 0x32, 0xbc, 0xbf, 0xdb, 0x4d, 0xbb,
  0x34, 0xb0, 0x4e, 0xbb, 0x22, 0x84, 0x7e, 0x3c, 0xc9, 0xb2, 0x09, 0x3c,
  0x50, 0x72, 0x68, 0x3b, 0x94, 0x02, 0x09, 0xbc, 0x70, 0xf5, 0x94, 0x3b,
  0xe1, 0x6b, 0x74, 0x3c, 0x38, 0x7f, 0x67, 0x3b, 0xf3, 0x61, 0xee, 0x3b,
  0xf0, 0x1e, 0xff, 0x3b, 0x88, 0x25, 0xf8, 0xbb, 0xf1, 0xfc, 0xb2, 0x3b,
  0x2b, 0x97, 0x1c, 0xbc, 0x5e, 0xff, 0xff, 0xff, 0x04, 0x00, 0x00, 0x00,
  0x08, 0x00, 0x00, 0x00, 0x4f, 0xba, 0xdf, 0x3c, 0xb2, 0x21, 0x0d, 0xbd,
  0x28, 0xf9, 0xff, 0xff, 0x2c, 0xf9, 0xff, 0xff, 0x0f, 0x00, 0x00, 0x00,
  0x4d, 0x4c, 0x49, 0x52, 0x20, 0x43, 0x6f, 0x6e, 0x76, 0x65, 0x72, 0x74,
  0x65, 0x64, 0x2e, 0x00, 0x01, 0x00, 0x00, 0x00, 0x14, 0x00, 0x00, 0x00,
  0x00, 0x00, 0x0e, 0x00, 0x18, 0x00, 0x14, 0x00, 0x10, 0x00, 0x0c, 0x00,
  0x08, 0x00, 0x04, 0x00, 0x0e, 0x00, 0x00, 0x00, 0x14, 0x00, 0x00, 0x00,
  0x1c, 0x00, 0x00, 0x00, 0x78, 0x01, 0x00, 0x00, 0x7c, 0x01, 0x00, 0x00,
  0x80, 0x01, 0x00, 0x00, 0x04, 0x00, 0x00, 0x00, 0x6d, 0x61, 0x69, 0x6e,
  0x00, 0x00, 0x00, 0x00, 0x06, 0x00, 0x00, 0x00, 0x3c, 0x01, 0x00, 0x00,
  0xf8, 0x00, 0x00, 0x00, 0xb0, 0x00, 0x00, 0x00, 0x78, 0x00, 0x00, 0x00,
  0x40, 0x00, 0x00, 0x00, 0x04, 0x00, 0x00, 0x00, 0x2a, 0xff, 0xff, 0xff,
  0x1c, 0x00, 0x00, 0x00, 0x00, 0x00, 0x00, 0x09, 0x1c, 0x00, 0x00, 0x00,
  0x20, 0x00, 0x00, 0x00, 0x02, 0x00, 0x00, 0x00, 0x00, 0x00, 0x06, 0x00,
  0x08, 0x00, 0x04, 0x00, 0x06, 0x00, 0x00, 0x00, 0x00, 0x00, 0x80, 0x3f,
  0x01, 0x00, 0x00, 0x00, 0x0d, 0x00, 0x00, 0x00, 0x01, 0x00, 0x00, 0x00,
  0x0c, 0x00, 0x00, 0x00, 0x62, 0xff, 0xff, 0xff, 0x14, 0x00, 0x00, 0x00,
  0x00, 0x00, 0x00, 0x08, 0x10, 0x00, 0x00, 0x00, 0x14, 0x00, 0x00, 0x00,
  0x01, 0x00, 0x00, 0x00, 0xec, 0xf9, 0xff, 0xff, 0x01, 0x00, 0x00, 0x00,
  0x0c, 0x00, 0x00, 0x00, 0x03, 0x00, 0x00, 0x00, 0x0b, 0x00, 0x00, 0x00,
  0x03, 0x00, 0x00, 0x00, 0x01, 0x00, 0x00, 0x00, 0x96, 0xff, 0xff, 0xff,
  0x14, 0x00, 0x00, 0x00, 0x00, 0x00, 0x00, 0x08, 0x10, 0x00, 0x00, 0x00,
  0x14, 0x00, 0x00, 0x00, 0x01, 0x00, 0x00, 0x00, 0x20, 0xfa, 0xff, 0xff,
  0x01, 0x00, 0x00, 0x00, 0x0b, 0x00, 0x00, 0x00, 0x03, 0x00, 0x00, 0x00,
  0x0a, 0x00, 0x00, 0x00, 0x04, 0x00, 0x00, 0x00, 0xff, 0xff, 0xff, 0xff,
  0xca, 0xff, 0xff, 0xff, 0x14, 0x00, 0x00, 0x00, 0x00, 0x00, 0x00, 0x08,
  0x10, 0x00, 0x00, 0x00, 0x14, 0x00, 0x00, 0x00, 0x01, 0x00, 0x00, 0x00,
  0x54, 0xfa, 0xff, 0xff, 0x01, 0x00, 0x00, 0x00, 0x0a, 0x00, 0x00, 0x00,
  0x03, 0x00, 0x00, 0x00, 0x09, 0x00, 0x00, 0x00, 0x05, 0x00, 0x00, 0x00,
  0x02, 0x00, 0x00, 0x00, 0x00, 0x00, 0x0e, 0x00, 0x18, 0x00, 0x14, 0x00,
  0x10, 0x00, 0x0c, 0x00, 0x0b, 0x00, 0x04, 0x00, 0x0e, 0x00, 0x00, 0x00,
  0x14, 0x00, 0x00, 0x00, 0x00, 0x00, 0x00, 0x08, 0x10, 0x00, 0x00, 0x00,
  0x14, 0x00, 0x00, 0x00, 0x01, 0x00, 0x00, 0x00, 0x98, 0xfa, 0xff, 0xff,
  0x01, 0x00, 0x00, 0x00, 0x09, 0x00, 0x00, 0x00, 0x03, 0x00, 0x00, 0x00,
  0x08, 0x00, 0x00, 0x00, 0x06, 0x00, 0x00, 0x00, 0xff, 0xff, 0xff, 0xff,
  0x00, 0x00, 0x0a, 0x00, 0x0c, 0x00, 0x00, 0x00, 0x08, 0x00, 0x04, 0x00,
  0x0a, 0x00, 0x00, 0x00, 0x08, 0x00, 0x00, 0x00, 0x0c, 0x00, 0x00, 0x00,
  0x01, 0x00, 0x00, 0x00, 0x08, 0x00, 0x00, 0x00, 0x02, 0x00, 0x00, 0x00,
  0x00, 0x00, 0x00, 0x00, 0x07, 0x00, 0x00, 0x00, 0x01, 0x00, 0x00, 0x00,
  0x0d, 0x00, 0x00, 0x00, 0x01, 0x00, 0x00, 0x00, 0x00, 0x00, 0x00, 0x00,
  0x0e, 0x00, 0x00, 0x00, 0xe0, 0x04, 0x00, 0x00, 0x8c, 0x04, 0x00, 0x00,
  0x38, 0x04, 0x00, 0x00, 0xf8, 0x03, 0x00, 0x00, 0xb8, 0x03, 0x00, 0x00,
  0x78, 0x03, 0x00, 0x00, 0x38, 0x03, 0x00, 0x00, 0xf8, 0x02, 0x00, 0x00,
  0x78, 0x02, 0x00, 0x00, 0x14, 0x02, 0x00, 0x00, 0x6c, 0x01, 0x00, 0x00,
  0x08, 0x01, 0x00, 0x00, 0x60, 0x00, 0x00, 0x00, 0x04, 0x00, 0x00, 0x00,
  0x6e, 0xfb, 0xff, 0xff, 0x00, 0x00, 0x00, 0x01, 0x14, 0x00, 0x00, 0x00,
  0x1c, 0x00, 0x00, 0x00, 0x1c, 0x00, 0x00, 0x00, 0x0e, 0x00, 0x00, 0x00,
  0x34, 0x00, 0x00, 0x00, 0x02, 0x00, 0x00, 0x00, 0xff, 0xff, 0xff, 0xff,
  0x02, 0x00, 0x00, 0x00, 0x54, 0xfb, 0xff, 0xff, 0x19, 0x00, 0x00, 0x00,
  0x53, 0x74, 0x61, 0x74, 0x65, 0x66, 0x75, 0x6c, 0x50, 0x61, 0x72, 0x74,
  0x69, 0x74, 0x69, 0x6f, 0x6e, 0x65, 0x64, 0x43, 0x61, 0x6c, 0x6c, 0x3a,
  0x30, 0x00, 0x00, 0x00, 0x02, 0x00, 0x00, 0x00, 0x01, 0x00, 0x00, 0x00,
  0x02, 0x00, 0x00, 0x00, 0xc6, 0xfb, 0xff, 0xff, 0x00, 0x00, 0x00, 0x01,
  0x14, 0x00, 0x00, 0x00, 0x1c, 0x00, 0x00, 0x00, 0x1c, 0x00, 0x00, 0x00,
  0x0d, 0x00, 0x00, 0x00, 0x80, 0x00, 0x00, 0x00, 0x02, 0x00, 0x00, 0x00,
  0xff, 0xff, 0xff, 0xff, 0x02, 0x00, 0x00, 0x00, 0xac, 0xfb, 0xff, 0xff,
  0x64, 0x00, 0x00, 0x00, 0x73, 0x65, 0x71, 0x75, 0x65, 0x6e, 0x74, 0x69,
  0x61, 0x6c, 0x5f, 0x31, 0x2f, 0x64, 0x65, 0x6e, 0x73, 0x65, 0x5f, 0x44,
  0x65, 0x6e, 0x73, 0x65, 0x33, 0x2f, 0x42, 0x69, 0x61, 0x73, 0x41, 0x64,
  0x64, 0x3b, 0x73, 0x65, 0x71, 0x75, 0x65, 0x6e, 0x74, 0x69, 0x61, 0x6c,
  0x5f, 0x31, 0x2f, 0x64, 0x65, 0x6e, 0x73, 0x65, 0x5f, 0x44, 0x65, 0x6e,
  0x73, 0x65, 0x34, 0x2f, 0x4d, 0x61, 0x74, 0x4d, 0x75, 0x6c, 0x3b, 0x73,
  0x65, 0x71, 0x75, 0x65, 0x6e, 0x74, 0x69, 0x61, 0x6c, 0x5f, 0x31, 0x2f,
  0x64, 0x65, 0x6e, 0x73, 0x65, 0x5f, 0x44, 0x65, 0x6e, 0x73, 0x65, 0x34,
  0x2f, 0x42, 0x69, 0x61, 0x73, 0x41, 0x64, 0x64, 0x00, 0x00, 0x00, 0x00,
  0x02, 0x00, 0x00, 0x00, 0x01, 0x00, 0x00, 0x00, 0x02, 0x00, 0x00, 0x00,
  0x6a, 0xfc, 0xff, 0xff, 0x00, 0x00, 0x00, 0x01, 0x14, 0x00, 0x00, 0x00,
  0x1c, 0x00, 0x00, 0x00, 0x1c, 0x00, 0x00, 0x00, 0x0c, 0x00, 0x00, 0x00,
  0x3c, 0x00, 0x00, 0x00, 0x02, 0x00, 0x00, 0x00, 0xff, 0xff, 0xff, 0xff,
  0x1e, 0x00, 0x00, 0x00, 0x50, 0xfc, 0xff, 0xff, 0x20, 0x00, 0x00, 0x00,
  0x73, 0x65, 0x71, 0x75, 0x65, 0x6e, 0x74, 0x69, 0x61, 0x6c, 0x5f, 0x31,
  0x2f, 0x64, 0x65, 0x6e, 0x73, 0x65, 0x5f, 0x44, 0x65, 0x6e, 0x73, 0x65,
  0x33, 0x2f, 0x4d, 0x61, 0x74, 0x4d, 0x75, 0x6c, 0x00, 0x00, 0x00, 0x00,
  0x02, 0x00, 0x00, 0x00, 0x01, 0x00, 0x00, 0x00, 0x1e, 0x00, 0x00, 0x00,
  0xca, 0xfc, 0xff, 0xff, 0x00, 0x00, 0x00, 0x01, 0x14, 0x00, 0x00, 0x00,
  0x1c, 0x00, 0x00, 0x00, 0x1c, 0x00, 0x00, 0x00, 0x0b, 0x00, 0x00, 0x00,
  0x80, 0x00, 0x00, 0x00, 0x02, 0x00, 0x00, 0x00, 0xff, 0xff, 0xff, 0xff,
  0x14, 0x00, 0x00, 0x00, 0xb0, 0xfc, 0xff, 0xff, 0x64, 0x00, 0x00, 0x00,
  0x73, 0x65, 0x71, 0x75, 0x65, 0x6e, 0x74, 0x69, 0x61, 0x6c, 0x5f, 0x31,
  0x2f, 0x64, 0x65, 0x6e, 0x73, 0x65, 0x5f, 0x44, 0x65, 0x6e, 0x73, 0x65,
  0x31, 0x2f, 0x42, 0x69, 0x61, 0x73, 0x41, 0x64, 0x64, 0x3b, 0x73, 0x65,
  0x71, 0x75, 0x65, 0x6e, 0x74, 0x69, 0x61, 0x6c, 0x5f, 0x31, 0x2f, 0x64,
  0x65, 0x6e, 0x73, 0x65, 0x5f, 0x44, 0x65, 0x6e, 0x73, 0x65, 0x32, 0x2f,
  0x4d, 0x61, 0x74, 0x4d, 0x75, 0x6c, 0x3b, 0x73, 0x65, 0x71, 0x75, 0x65,
  0x6e, 0x74, 0x69, 0x61, 0x6c, 0x5f, 0x31, 0x2f, 0x64, 0x65, 0x6e, 0x73,
  0x65, 0x5f, 0x44, 0x65, 0x6e, 0x73, 0x65, 0x32, 0x2f, 0x42, 0x69, 0x61,
  0x73, 0x41, 0x64, 0x64, 0x00, 0x00, 0x00, 0x00, 0x02, 0x00, 0x00, 0x00,
  0x01, 0x00, 0x00, 0x00, 0x14, 0x00, 0x00, 0x00, 0x6e, 0xfd, 0xff, 0xff,
  0x00, 0x00, 0x00, 0x01, 0x14, 0x00, 0x00, 0x00, 0x1c, 0x00, 0x00, 0x00,
  0x1c, 0x00, 0x00, 0x00, 0x0a, 0x00, 0x00, 0x00, 0x3c, 0x00, 0x00, 0x00,
  0x02, 0x00, 0x00, 0x00, 0xff, 0xff, 0xff, 0xff, 0x08, 0x00, 0x00, 0x00,
  0x54, 0xfd, 0xff, 0xff, 0x20, 0x00, 0x00, 0x00, 0x73, 0x65, 0x71, 0x75,
  0x65, 0x6e, 0x74, 0x69, 0x61, 0x6c, 0x5f, 0x31, 0x2f, 0x64, 0x65, 0x6e,
  0x73, 0x65, 0x5f, 0x44, 0x65, 0x6e, 0x73, 0x65, 0x31, 0x2f, 0x4d, 0x61,
  0x74, 0x4d, 0x75, 0x6c, 0x00, 0x00, 0x00, 0x00, 0x02, 0x00, 0x00, 0x00,
  0x01, 0x00, 0x00, 0x00, 0x08, 0x00, 0x00, 0x00, 0xce, 0xfd, 0xff, 0xff,
  0x00, 0x00, 0x00, 0x01, 0x14, 0x00, 0x00, 0x00, 0x1c, 0x00, 0x00, 0x00,
  0x1c, 0x00, 0x00, 0x00, 0x09, 0x00, 0x00, 0x00, 0x40, 0x00, 0x00, 0x00,
  0x02, 0x00, 0x00, 0x00, 0xff, 0xff, 0xff, 0xff, 0x6c, 0x00, 0x00, 0x00,
  0xb4, 0xfd, 0xff, 0xff, 0x25, 0x00, 0x00, 0x00, 0x73, 0x65, 0x71, 0x75,
  0x65, 0x6e, 0x74, 0x69, 0x61, 0x6c, 0x5f, 0x31, 0x2f, 0x66, 0x6c, 0x61,
  0x74, 0x74, 0x65, 0x6e, 0x5f, 0x46, 0x6c, 0x61, 0x74, 0x74, 0x65, 0x6e,
  0x31, 0x2f, 0x52, 0x65, 0x73, 0x68, 0x61, 0x70, 0x65, 0x00, 0x00, 0x00,
  0x02, 0x00, 0x00, 0x00, 0x01, 0x00, 0x00, 0x00, 0x6c, 0x00, 0x00, 0x00,
  0x00, 0x00, 0x16, 0x00, 0x1c, 0x00, 0x18, 0x00, 0x17, 0x00, 0x10, 0x00,
  0x0c, 0x00, 0x08, 0x00, 0x00, 0x00, 0x00, 0x00, 0x00, 0x00, 0x07, 0x00,
  0x16, 0x00, 0x00, 0x00, 0x00, 0x00, 0x00, 0x01, 0x14, 0x00, 0x00, 0x00,
  0x14, 0x00, 0x00, 0x00, 0x08, 0x00, 0x00, 0x00, 0x00, 0x00, 0x00, 0x02,
  0x1c, 0x00, 0x00, 0x00, 0x24, 0xfe, 0xff, 0xff, 0x0f, 0x00, 0x00, 0x00,
  0x61, 0x72, 0x69, 0x74, 0x68, 0x2e, 0x63, 0x6f, 0x6e, 0x73, 0x74, 0x61,
  0x6e, 0x74, 0x36, 0x00, 0x01, 0x00, 0x00, 0x00, 0x02, 0x00, 0x00, 0x00,
  0xd6, 0xfe, 0xff, 0xff, 0x00, 0x00, 0x00, 0x01, 0x10, 0x00, 0x00, 0x00,
  0x10, 0x00, 0x00, 0x00, 0x07, 0x00, 0x00, 0x00, 0x1c, 0x00, 0x00, 0x00,
  0x5c, 0xfe, 0xff, 0xff, 0x0f, 0x00, 0x00, 0x00, 0x61, 0x72, 0x69, 0x74,
  0x68, 0x2e, 0x63, 0x6f, 0x6e, 0x73, 0x74, 0x61, 0x6e, 0x74, 0x35, 0x00,
  0x02, 0x00, 0x00, 0x00, 0x08, 0x00, 0x00, 0x00, 0x6c, 0x00, 0x00, 0x00,
  0x12, 0xff, 0xff, 0xff, 0x00, 0x00, 0x00, 0x01, 0x10, 0x00, 0x00, 0x00,
  0x10, 0x00, 0x00, 0x00, 0x06, 0x00, 0x00, 0x00, 0x1c, 0x00, 0x00, 0x00,
  0x98, 0xfe, 0xff, 0xff, 0x0f, 0x00, 0x00, 0x00, 0x61, 0x72, 0x69, 0x74,
  0x68, 0x2e, 0x63, 0x6f, 0x6e, 0x73, 0x74, 0x61, 0x6e, 0x74, 0x34, 0x00,
  0x02, 0x00, 0x00, 0x00, 0x14, 0x00, 0x00, 0x00, 0x08, 0x00, 0x00, 0x00,
  0x4e, 0xff, 0xff, 0xff, 0x00, 0x00, 0x00, 0x01, 0x10, 0x00, 0x00, 0x00,
  0x10, 0x00, 0x00, 0x00, 0x05, 0x00, 0x00, 0x00, 0x1c, 0x00, 0x00, 0x00,
  0xd4, 0xfe, 0xff, 0xff, 0x0f, 0x00, 0x00, 0x00, 0x61, 0x72, 0x69, 0x74,
  0x68, 0x2e, 0x63, 0x6f, 0x6e, 0x73, 0x74, 0x61, 0x6e, 0x74, 0x33, 0x00,
  0x02, 0x00, 0x00, 0x00, 0x1e, 0x00, 0x00, 0x00, 0x14, 0x00, 0x00, 0x00,
  0x8a, 0xff, 0xff, 0xff, 0x00, 0x00, 0x00, 0x01, 0x10, 0x00, 0x00, 0x00,
  0x10, 0x00, 0x00, 0x00, 0x04, 0x00, 0x00, 0x00, 0x1c, 0x00, 0x00, 0x00,
  0x10, 0xff, 0xff, 0xff, 0x0f, 0x00, 0x00, 0x00, 0x61, 0x72, 0x69, 0x74,
  0x68, 0x2e, 0x63, 0x6f, 0x6e, 0x73, 0x74, 0x61, 0x6e, 0x74, 0x32, 0x00,
  0x02, 0x00, 0x00, 0x00, 0x02, 0x00, 0x00, 0x00, 0x1e, 0x00, 0x00, 0x00,
  0xc6, 0xff, 0xff, 0xff, 0x00, 0x00, 0x00, 0x01, 0x10, 0x00, 0x00, 0x00,
  0x10, 0x00, 0x00, 0x00, 0x03, 0x00, 0x00, 0x00, 0x1c, 0x00, 0x00, 0x00,
  0x4c, 0xff, 0xff, 0xff, 0x0f, 0x00, 0x00, 0x00, 0x61, 0x72, 0x69, 0x74,
  0x68, 0x2e, 0x63, 0x6f, 0x6e, 0x73, 0x74, 0x61, 0x6e, 0x74, 0x31, 0x00,
  0x01, 0x00, 0x00, 0x00, 0x14, 0x00, 0x00, 0x00, 0x00, 0x00, 0x16, 0x00,
  0x18, 0x00, 0x14, 0x00, 0x00, 0x00, 0x10, 0x00, 0x0c, 0x00, 0x08, 0x00,
  0x00, 0x00, 0x00, 0x00, 0x00, 0x00, 0x07, 0x00, 0x16, 0x00, 0x00, 0x00,
  0x00, 0x00, 0x00, 0x01, 0x10, 0x00, 0x00, 0x00, 0x10, 0x00, 0x00, 0x00,
  0x02, 0x00, 0x00, 0x00, 0x1c, 0x00, 0x00, 0x00, 0x9c, 0xff, 0xff, 0xff,
  0x0e, 0x00, 0x00, 0x00, 0x61, 0x72, 0x69, 0x74, 0x68, 0x2e, 0x63, 0x6f,
  0x6e, 0x73, 0x74, 0x61, 0x6e, 0x74, 0x00, 0x00, 0x01, 0x00, 0x00, 0x00,
  0x02, 0x00, 0x00, 0x00, 0x00, 0x00, 0x16, 0x00, 0x1c, 0x00, 0x18, 0x00,
  0x00, 0x00, 0x14, 0x00, 0x10, 0x00, 0x0c, 0x00, 0x00, 0x00, 0x00, 0x00,
  0x08, 0x00, 0x07, 0x00, 0x16, 0x00, 0x00, 0x00, 0x00, 0x00, 0x00, 0x01,
  0x14, 0x00, 0x00, 0x00, 0x24, 0x00, 0x00, 0x00, 0x24, 0x00, 0x00, 0x00,
  0x01, 0x00, 0x00, 0x00, 0x4c, 0x00, 0x00, 0x00, 0x03, 0x00, 0x00, 0x00,
  0xff, 0xff, 0xff, 0xff, 0x24, 0x00, 0x00, 0x00, 0x03, 0x00, 0x00, 0x00,
  0x04, 0x00, 0x04, 0x00, 0x04, 0x00, 0x00, 0x00, 0x28, 0x00, 0x00, 0x00,
  0x73, 0x65, 0x72, 0x76, 0x69, 0x6e, 0x67, 0x5f, 0x64, 0x65, 0x66, 0x61,
  0x75, 0x6c, 0x74, 0x5f, 0x66, 0x6c, 0x61, 0x74, 0x74, 0x65, 0x6e, 0x5f,
  0x46, 0x6c, 0x61, 0x74, 0x74, 0x65, 0x6e, 0x31, 0x5f, 0x69, 0x6e, 0x70,
  0x75, 0x74, 0x3a, 0x30, 0x00, 0x00, 0x00, 0x00, 0x03, 0x00, 0x00, 0x00,
  0x01, 0x00, 0x00, 0x00, 0x24, 0x00, 0x00, 0x00, 0x03, 0x00, 0x00, 0x00,
  0x03, 0x00, 0x00, 0x00, 0x30, 0x00, 0x00, 0x00, 0x14, 0x00, 0x00, 0x00,
  0x04, 0x00, 0x00, 0x00, 0xe8, 0xff, 0xff, 0xff, 0x19, 0x00, 0x00, 0x00,
  0x00, 0x00, 0x00, 0x19, 0xf4, 0xff, 0xff, 0xff, 0x09, 0x00, 0x00, 0x00,
  0x00, 0x00, 0x00, 0x09, 0x0c, 0x00, 0x0c, 0x00, 0x0b, 0x00, 0x00, 0x00,
  0x00, 0x00, 0x04, 0x00, 0x0c, 0x00, 0x00, 0x00, 0x16, 0x00, 0x00, 0x00,
  0x00, 0x00, 0x00, 0x16
};

unsigned int model_tflite_len = 9328;





