unsigned char model_tflite[] = {
  0x1c, 0x00, 0x00, 0x00, 0x54, 0x46, 0x4c, 0x33, 0x14, 0x00, 0x20, 0x00,
  0x1c, 0x00, 0x18, 0x00, 0x14, 0x00, 0x10, 0x00, 0x0c, 0x00, 0x00, 0x00,
  0x08, 0x00, 0x04, 0x00, 0x14, 0x00, 0x00, 0x00, 0x1c, 0x00, 0x00, 0x00,
  0xa4, 0x00, 0x00, 0x00, 0xfc, 0x00, 0x00, 0x00, 0x3c, 0x19, 0x00, 0x00,
  0x4c, 0x19, 0x00, 0x00, 0x18, 0x21, 0x00, 0x00, 0x03, 0x00, 0x00, 0x00,
  0x01, 0x00, 0x00, 0x00, 0x10, 0x00, 0x00, 0x00, 0x00, 0x00, 0x0a, 0x00,
  0x10, 0x00, 0x0c, 0x00, 0x08, 0x00, 0x04, 0x00, 0x0a, 0x00, 0x00, 0x00,
  0x0c, 0x00, 0x00, 0x00, 0x1c, 0x00, 0x00, 0x00, 0x40, 0x00, 0x00, 0x00,
  0x0f, 0x00, 0x00, 0x00, 0x73, 0x65, 0x72, 0x76, 0x69, 0x6e, 0x67, 0x5f,
  0x64, 0x65, 0x66, 0x61, 0x75, 0x6c, 0x74, 0x00, 0x01, 0x00, 0x00, 0x00,
  0x04, 0x00, 0x00, 0x00, 0x84, 0xff, 0xff, 0xff, 0x0d, 0x00, 0x00, 0x00,
  0x04, 0x00, 0x00, 0x00, 0x0c, 0x00, 0x00, 0x00, 0x64, 0x65, 0x6e, 0x73,
  0x65, 0x5f, 0x44, 0x65, 0x6e, 0x73, 0x65, 0x38, 0x00, 0x00, 0x00, 0x00,
  0x01, 0x00, 0x00, 0x00, 0x04, 0x00, 0x00, 0x00, 0xb6, 0xe6, 0xff, 0xff,
  0x04, 0x00, 0x00, 0x00, 0x16, 0x00, 0x00, 0x00, 0x66, 0x6c, 0x61, 0x74,
  0x74, 0x65, 0x6e, 0x5f, 0x46, 0x6c, 0x61, 0x74, 0x74, 0x65, 0x6e, 0x32,
  0x5f, 0x69, 0x6e, 0x70, 0x75, 0x74, 0x00, 0x00, 0x02, 0x00, 0x00, 0x00,
  0x34, 0x00, 0x00, 0x00, 0x04, 0x00, 0x00, 0x00, 0xdc, 0xff, 0xff, 0xff,
  0x10, 0x00, 0x00, 0x00, 0x04, 0x00, 0x00, 0x00, 0x13, 0x00, 0x00, 0x00,
  0x43, 0x4f, 0x4e, 0x56, 0x45, 0x52, 0x53, 0x49, 0x4f, 0x4e, 0x5f, 0x4d,
  0x45, 0x54, 0x41, 0x44, 0x41, 0x54, 0x41, 0x00, 0x08, 0x00, 0x0c, 0x00,
  0x08, 0x00, 0x04, 0x00, 0x08, 0x00, 0x00, 0x00, 0x0f, 0x00, 0x00, 0x00,
  0x04, 0x00, 0x00, 0x00, 0x13, 0x00, 0x00, 0x00, 0x6d, 0x69, 0x6e, 0x5f,
  0x72, 0x75, 0x6e, 0x74, 0x69, 0x6d, 0x65, 0x5f, 0x76, 0x65, 0x72, 0x73,
  0x69, 0x6f, 0x6e, 0x00, 0x11, 0x00, 0x00, 0x00, 0x3c, 0x18, 0x00, 0x00,
  0x34, 0x18, 0x00, 0x00, 0xd4, 0x17, 0x00, 0x00, 0xb8, 0x17, 0x00, 0x00,
  0xa0, 0x17, 0x00, 0x00, 0x30, 0x0e, 0x00, 0x00, 0xa0, 0x0b, 0x00, 0x00,
  0x30, 0x02, 0x00, 0x00, 0xb8, 0x00, 0x00, 0x00, 0xb0, 0x00, 0x00, 0x00,
  0xa8, 0x00, 0x00, 0x00, 0xa0, 0x00, 0x00, 0x00, 0x98, 0x00, 0x00, 0x00,
  0x90, 0x00, 0x00, 0x00, 0x88, 0x00, 0x00, 0x00, 0x68, 0x00, 0x00, 0x00,
  0x04, 0x00, 0x00, 0x00, 0x7e, 0xe7, 0xff, 0xff, 0x04, 0x00, 0x00, 0x00,
  0x54, 0x00, 0x00, 0x00, 0x0c, 0x00, 0x00, 0x00, 0x08, 0x00, 0x0e, 0x00,
  0x08, 0x00, 0x04, 0x00, 0x08, 0x00, 0x00, 0x00, 0x10, 0x00, 0x00, 0x00,
  0x24, 0x00, 0x00, 0x00, 0x00, 0x00, 0x06, 0x00, 0x08, 0x00, 0x04, 0x00,
  0x06, 0x00, 0x00, 0x00, 0x04, 0x00, 0x00, 0x00, 0x00, 0x00, 0x00, 0x00,
  0x00, 0x00, 0x0a, 0x00, 0x10, 0x00, 0x0c, 0x00, 0x08, 0x00, 0x04, 0x00,
  0x0a, 0x00, 0x00, 0x00, 0x02, 0x00, 0x00, 0x00, 0x02, 0x00, 0x00, 0x00,
  0x04, 0x00, 0x00, 0x00, 0x06, 0x00, 0x00, 0x00, 0x32, 0x2e, 0x31, 0x34,
  0x2e, 0x30, 0x00, 0x00, 0xde, 0xe7, 0xff, 0xff, 0x04, 0x00, 0x00, 0x00,
  0x10, 0x00, 0x00, 0x00, 0x31, 0x2e, 0x35, 0x2e, 0x30, 0x00, 0x00, 0x00,
  0x00, 0x00, 0x00, 0x00, 0x00, 0x00, 0x00, 0x00, 0xe4, 0xe0, 0xff, 0xff,
  0xe8, 0xe0, 0xff, 0xff, 0xec, 0xe0, 0xff, 0xff, 0xf0, 0xe0, 0xff, 0xff,
  0xf4, 0xe0, 0xff, 0xff, 0xf8, 0xe0, 0xff, 0xff, 0x12, 0xe8, 0xff, 0xff,
  0x04, 0x00, 0x00, 0x00, 0x68, 0x01, 0x00, 0x00, 0x20, 0xa4, 0x2f, 0x3d,
  0xd9, 0xe9, 0x33, 0xbd, 0x96, 0x5c, 0x7c, 0xbb, 0x80, 0x05, 0x0c, 0x3e,
  0x6a, 0x65, 0x57, 0xbd, 0x0e, 0xbc, 0x26, 0xbe, 0x1c, 0x60, 0x3c, 0x3d,
  0xa2, 0x8e, 0xa8, 0xbe, 0x2d, 0xd7, 0x34, 0x3e, 0x2c, 0x16, 0x19, 0xbd,
  0x14, 0xae, 0xd1, 0xbe, 0x59, 0xab, 0xf9, 0x3d, 0xce, 0x43, 0x56, 0xbe,
  0x67, 0x17, 0xd1, 0x3d, 0x46, 0x77, 0x5b, 0x3d, 0x4f, 0xa4, 0x55, 0xbe,
  0x6b, 0xac, 0x49, 0x3c, 0xc7, 0x20, 0xbd, 0xbe, 0xdd, 0xe8, 0x21, 0xbe,
  0x72, 0x6a, 0xa7, 0xbd, 0xcd, 0xbe, 0x90, 0x3e, 0x6c, 0x2f, 0x27, 0x3e,
  0x8d, 0x9f, 0xbb, 0x3e, 0x8b, 0xa7, 0x8d, 0xbd, 0xba, 0x34, 0xd5, 0xbd,
  0x24, 0xc7, 0x3b, 0xbe, 0xd1, 0x1a, 0x32, 0x3e, 0xa0, 0x2e, 0xab, 0x3c,
  0x9b, 0x24, 0xb8, 0x3e, 0xed, 0x65, 0x8f, 0xbd, 0x8d, 0xeb, 0xfa, 0x3e,
  0xb8, 0xa7, 0x16, 0x3e, 0xec, 0x8c, 0x92, 0x3d, 0x1d, 0x8b, 0xb3, 0x3e,
  0x28, 0x2b, 0x31, 0xbd, 0xed, 0xf5, 0x6b, 0xbe, 0x87, 0xf4, 0xa5, 0x3c,
  0xca, 0x52, 0x92, 0x3d, 0x55, 0xce, 0x95, 0x3e, 0xa3, 0x0f, 0x19, 0x3e,
  0x07, 0xa7, 0xc3, 0x3e, 0x7c, 0x10, 0x9d, 0xbe, 0xa5, 0x23, 0xa8, 0xbe,
  0xf2, 0x52, 0xb0, 0x3e, 0x8c, 0x6c, 0x9e, 0x3d, 0x18, 0x66, 0xe5, 0x3e,
  0xcc, 0x60, 0x97, 0x3e, 0xbb, 0xf3, 0x03, 0xbe, 0xa8, 0x88, 0xab, 0xbc,
  0xdb, 0xcb, 0x10, 0x3d, 0xeb, 0x5a, 0xaa, 0xbe, 0x72, 0xa6, 0xb7, 0x3e,
  0xda, 0xb8, 0x8a, 0xbe, 0x7e, 0x52, 0xef, 0x3e, 0xe4, 0x6c, 0xdd, 0x3e,
  0x92, 0x53, 0xfa, 0x3d, 0x26, 0x43, 0x16, 0x3e, 0xc3, 0x66, 0xd5, 0x3d,
  0x4d, 0x06, 0xa4, 0xbc, 0x0a, 0x42, 0xc6, 0xbe, 0x01, 0x70, 0xad, 0x3d,
  0xfd, 0x93, 0xf6, 0xbc, 0x82, 0x99, 0xbb, 0xbe, 0xf4, 0x42, 0x1f, 0xbe,
  0xc9, 0x4f, 0x0e, 0x3d, 0xd3, 0x64, 0x1d, 0xbd, 0xca, 0xa2, 0xd7, 0xbe,
  0xab, 0x3f, 0x3c, 0xbe, 0x93, 0x44, 0xbe, 0x3d, 0xc0, 0x1f, 0xa7, 0xbe,
  0xe0, 0xb7, 0x5d, 0x3e, 0x65, 0x27, 0x19, 0x3e, 0xba, 0xef, 0x21, 0x3e,
  0x73, 0x68, 0x03, 0x3e, 0x69, 0x02, 0xb8, 0xbe, 0x64, 0x13, 0xa8, 0x3b,
  0x5c, 0x1f, 0x2e, 0x3d, 0xdf, 0x84, 0x6f, 0xbe, 0xcf, 0x2f, 0x46, 0x3d,
  0xce, 0x97, 0x83, 0x3e, 0x7f, 0x96, 0xa2, 0x3e, 0xbb, 0x33, 0x8c, 0x3e,
  0xf0, 0x21, 0x17, 0x3e, 0xae, 0xa9, 0x0f, 0x3e, 0xa6, 0x42, 0xf5, 0x3d,
  0x87, 0xde, 0x4c, 0xbe, 0x0d, 0x08, 0x27, 0x3e, 0xa8, 0x4a, 0x51, 0xbd,
  0xc4, 0x8d, 0x6c, 0x3d, 0x2a, 0x93, 0x9e, 0x3d, 0x86, 0xe9, 0xff, 0xff,
  0x04, 0x00, 0x00, 0x00, 0x60, 0x09, 0x00, 0x00, 0xcf, 0x43, 0xb6, 0xbe,
  0x39, 0xbd, 0xcd, 0xbd, 0xb7, 0xee, 0x96, 0xbd, 0x87, 0x1c, 0x2a, 0xbd,
  0xf1, 0x06, 0x95, 0xbc, 0xde, 0x0a, 0x9d, 0xbe, 0xf5, 0xfc, 0x0b, 0xbe,
  0x51, 0x96, 0x81, 0xbd, 0x57, 0xda, 0x8d, 0x3e, 0xc3, 0x05, 0x6c, 0x3e,
  0xd5, 0x85, 0xa1, 0x3e, 0x68, 0x7e, 0xb8, 0x3e, 0xfe, 0x14, 0x5a, 0xbe,
  0xd3, 0x2e, 0x6f, 0x3c, 0xdb, 0xd4, 0xe2, 0xbd, 0x54, 0x44, 0x27, 0xbe,
  0x05, 0x29, 0x10, 0x3e, 0xa5, 0xfa, 0x9b, 0xbe, 0xb0, 0xd3, 0x22, 0x3e,
  0x9d, 0x8e, 0x85, 0xbd, 0x9b, 0xb0, 0x34, 0xbe, 0xad, 0xa7, 0x4c, 0xbe,
  0xb5, 0x3c, 0x21, 0x3e, 0x85, 0x4a, 0xee, 0x3c, 0xa0, 0x85, 0x6d, 0x3e,
  0x16, 0x12, 0xee, 0xbc, 0x65, 0xd0, 0x09, 0xbe, 0x2d, 0x13, 0x54, 0x3e,
  0xd1, 0xf1, 0x89, 0xbd, 0x57, 0x53, 0x72, 0x3e, 0x36, 0x6c, 0x41, 0xbe,
  0xab, 0x1d, 0xf5, 0xbc, 0xa4, 0xa1, 0x56, 0xbd, 0xed, 0x51, 0x42, 0xbe,
  0x6f, 0x5f, 0x71, 0xbe, 0xa1, 0x6e, 0xef, 0xbb, 0x32, 0xaa, 0x35, 0x3c,
  0x01, 0x11, 0x0d, 0x3e, 0xea, 0x93, 0x14, 0x3e, 0x5e, 0x1e, 0xb4, 0xbe,
  0x32, 0x7e, 0x94, 0xbe, 0x0d, 0x81, 0x91, 0x3e, 0x84, 0x3d, 0x92, 0xbd,
  0xf6, 0x23, 0x15, 0xbd, 0x5b, 0xea, 0x1f, 0x3e, 0xa5, 0xc9, 0x4d, 0xbd,
  0x3e, 0x01, 0x4e, 0xbe, 0xe1, 0x7e, 0x8a, 0x3d, 0x35, 0x16, 0xb6, 0x3e,
  0xe0, 0xbc, 0x5b, 0x3d, 0xe6, 0x02, 0x04, 0x3e, 0x14, 0x02, 0x88, 0xbd,
  0x15, 0xd1, 0x80, 0xbc, 0xd3, 0x3a, 0xd8, 0x3d, 0x74, 0xbf, 0x27, 0xbe,
  0x12, 0x74, 0x4c, 0x3e, 0xee, 0x32, 0x44, 0xbe, 0xa7, 0xcc, 0x40, 0x3d,
  0xa0, 0x6e, 0x78, 0xbc, 0xc5, 0x77, 0xa1, 0x3e, 0xe7, 0x7f, 0xa7, 0x3d,
  0x1f, 0xae, 0x86, 0x3e, 0x5d, 0x2d, 0x06, 0x3e, 0x1b, 0xfa, 0xe5, 0xbd,
  0xe7, 0xa4, 0xd5, 0x38, 0xf7, 0x4a, 0x6e, 0x3d, 0x48, 0x45, 0x0c, 0xbc,
  0xe0, 0x81, 0xbe, 0xbe, 0xf4, 0x52, 0xcb, 0xbc, 0x5f, 0x4e, 0xa1, 0xbe,
  0xaf, 0x16, 0x31, 0xbe, 0xff, 0x96, 0x4f, 0xbb, 0xc8, 0x0f, 0xe6, 0x3d,
  0x44, 0x84, 0x1b, 0x3e, 0x73, 0x16, 0xd4, 0x3d, 0x44, 0xd1, 0x16, 0xbe,
  0x03, 0x80, 0xe9, 0x3d, 0x79, 0x9e, 0x23, 0xbd, 0x51, 0xd5, 0x56, 0xbe,
  0x2d, 0x14, 0x3e, 0xbe, 0xd9, 0xe1, 0xf6, 0xbd, 0x66, 0xd5, 0xc8, 0x3d,
  0x9b, 0x31, 0xa0, 0xbc, 0xd4, 0xc3, 0x86, 0x3e, 0x90, 0xc4, 0x5c, 0x3d,
  0x95, 0x0b, 0xad, 0x3d, 0x00, 0x3d, 0x98, 0xbd, 0xa7, 0x5b, 0xbf, 0x3d,
  0xb3, 0xba, 0x3f, 0xbd, 0x87, 0x2a, 0xce, 0xbe, 0x70, 0x8d, 0x50, 0xbd,
  0x14, 0xb1, 0x52, 0xbe, 0xd5, 0xd3, 0xca, 0x3d, 0x61, 0xd5, 0x1b, 0xbe,
  0xfc, 0xa8, 0x1a, 0x3e, 0x21, 0x02, 0xed, 0xbd, 0x17, 0xe1, 0xc8, 0xbd,
  0xa7, 0xf1, 0x4e, 0xbd, 0x0b, 0x4d, 0x84, 0x3e, 0x69, 0x0c, 0x6e, 0xbe,
  0x82, 0x0b, 0x94, 0x3e, 0x5d, 0xc8, 0x13, 0x3e, 0x76, 0x17, 0x89, 0xbd,
  0xea, 0x6b, 0x7e, 0x3e, 0x59, 0xc5, 0xc7, 0x3e, 0xe0, 0x2a, 0xc1, 0x3e,
  0xad, 0xf2, 0x72, 0x3d, 0xa4, 0x7c, 0xc7, 0xbc, 0x9e, 0x55, 0x7d, 0x3e,
  0x9c, 0xe0, 0xb1, 0xbe, 0xe4, 0x99, 0x18, 0x3e, 0x4e, 0x66, 0x60, 0x3e,
  0x1c, 0x52, 0x32, 0xbe, 0x67, 0x2b, 0x67, 0x3e, 0xae, 0xff, 0xad, 0x3d,
  0x6c, 0x1a, 0x99, 0x3b, 0x54, 0xc3, 0xae, 0xbd, 0x49, 0xc0, 0x8e, 0x3e,
  0x2c, 0x40, 0xb4, 0xbe, 0x9d, 0x83, 0x50, 0xbe, 0x39, 0xb3, 0x40, 0x3e,
  0x79, 0xf5, 0xbf, 0xbe, 0xfc, 0x7f, 0x82, 0x3e, 0x8c, 0xce, 0x7d, 0x3e,
  0xf8, 0x6d, 0xbf, 0x3d, 0x9d, 0x51, 0x8b, 0x3b, 0xa9, 0xcd, 0x09, 0xbe,
  0x1e, 0x37, 0x54, 0xbe, 0xae, 0x02, 0x56, 0x3d, 0xf4, 0x70, 0xac, 0x3d,
  0x11, 0x8f, 0x90, 0x3e, 0xd3, 0x37, 0x9b, 0x3e, 0x23, 0xf5, 0x29, 0xbe,
  0x8e, 0x7f, 0x3f, 0x3e, 0xb4, 0x6c, 0xb5, 0x3d, 0xf6, 0x16, 0x60, 0xbe,
  0xfc, 0x86, 0x89, 0x3e, 0xbf, 0x25, 0x91, 0xbd, 0x23, 0x56, 0x8b, 0xbd,
  0xc5, 0x3c, 0x9c, 0xbd, 0x9d, 0x6c, 0x1b, 0x3e, 0xab, 0x2f, 0x73, 0x3d,
  0xd2, 0xfe, 0x77, 0x3d, 0x7b, 0x21, 0x64, 0xbd, 0x09, 0xd8, 0x48, 0xbe,
  0x24, 0xff, 0x7d, 0x3d, 0xb2, 0x04, 0x76, 0x3e, 0x1c, 0x96, 0x9d, 0x3b,
  0x82, 0x91, 0x94, 0xbe, 0xf9, 0x0f, 0x84, 0x3c, 0x4e, 0x84, 0x50, 0x3e,
  0x1f, 0x37, 0x25, 0xbd, 0xf9, 0xa2, 0x3a, 0xbc, 0xbd, 0x9b, 0xaf, 0xbc,
  0x28, 0x6c, 0xa2, 0xbd, 0xfc, 0x17, 0x28, 0x3e, 0x16, 0xc4, 0x58, 0xbc,
  0x73, 0xf9, 0x9a, 0xbd, 0xfa, 0x97, 0x96, 0xbd, 0xb0, 0xb4, 0x28, 0xbe,
  0x9b, 0x54, 0xe6, 0x3d, 0x1e, 0xb6, 0x66, 0x3d, 0xd0, 0x97, 0x51, 0x3e,
  0x1a, 0x68, 0xa6, 0x3e, 0xb5, 0x5c, 0x23, 0x3d, 0xcc, 0xc8, 0x29, 0xbe,
  0x1b, 0xd4, 0x76, 0x3d, 0xa4, 0xd3, 0xf0, 0xbc, 0xe4, 0xfa, 0x27, 0x3e,
  0x1e, 0x17, 0xd8, 0x3c, 0x99, 0x7e, 0xc8, 0x3d, 0x0e, 0xdf, 0xd1, 0x3e,
  0xff, 0xa5, 0xbf, 0xbe, 0x54, 0x02, 0xb5, 0xbd, 0x5f, 0xe1, 0x97, 0x3d,
  0xad, 0x6c, 0x32, 0x3d, 0xb5, 0xe5, 0xd2, 0x3e, 0x2c, 0xb1, 0xef, 0xbc,
  0x1c, 0xa7, 0xa5, 0x3e, 0x59, 0x93, 0xeb, 0x3d, 0xb4, 0x63, 0x1b, 0xbc,
  0x10, 0x5d, 0x99, 0xbe, 0xb4, 0xf0, 0x68, 0xbe, 0xfe, 0x83, 0x87, 0x3c,
  0xf8, 0xc2, 0x43, 0xbe, 0xba, 0x8d, 0x10, 0x3d, 0x37, 0x94, 0xc6, 0x3d,
  0x1c, 0x81, 0x64, 0xbe, 0x8f, 0x29, 0x66, 0xbd, 0x3d, 0x9f, 0x02, 0xbe,
  0x74, 0x5c, 0x24, 0xbe, 0xa1, 0x1e, 0x5f, 0x3c, 0xf5, 0x14, 0x4a, 0xbe,
  0x9f, 0x3e, 0x88, 0x3e, 0xcd, 0x22, 0x13, 0x3d, 0x06, 0x37, 0x86, 0x3d,
  0x98, 0x96, 0x55, 0x3e, 0x7d, 0x58, 0x8c, 0xbd, 0x63, 0x76, 0xb4, 0x3c,
  0xb9, 0x27, 0x02, 0x3e, 0x96, 0x59, 0x7b, 0xbd, 0xd6, 0x2c, 0x96, 0x3d,
  0xca, 0xa1, 0xf9, 0xbc, 0x94, 0x50, 0x51, 0x3e, 0x9b, 0xd1, 0xd8, 0x3c,
  0x1f, 0xb4, 0x85, 0x3d, 0xb0, 0x1e, 0x88, 0xbd, 0x08, 0x6a, 0x43, 0x3e,
  0xc3, 0x5a, 0xc2, 0x3d, 0xfc, 0xdf, 0x90, 0xbe, 0x26, 0x49, 0x49, 0xbe,
  0x05, 0xe0, 0xbe, 0xbe, 0x0e, 0xfe, 0x0a, 0x3c, 0x2d, 0xf6, 0xb1, 0x3e,
  0x4d, 0x21, 0x63, 0xbc, 0x1d, 0xb4, 0x25, 0xbe, 0xa9, 0x72, 0x08, 0xbc,
  0x1d, 0xb1, 0x39, 0x3e, 0xf7, 0xb1, 0x9c, 0x3d, 0xfb, 0x6e, 0x44, 0xbe,
  0x50, 0xf4, 0x9d, 0x3e, 0x66, 0x23, 0xa6, 0x3e, 0x3d, 0x0b, 0x39, 0xbe,
  0xa1, 0x14, 0x59, 0x3e, 0xe6, 0xe0, 0x67, 0x3e, 0x91, 0x31, 0x2a, 0xbe,
  0x47, 0xa4, 0x09, 0xbe, 0xe0, 0x2c, 0x36, 0x3d, 0x98, 0xf7, 0x18, 0x3d,
  0xc5, 0x2c, 0x2c, 0x3e, 0x0d, 0xab, 0xa5, 0xbe, 0x5e, 0x01, 0x07, 0x3e,
  0xeb, 0x44, 0x3a, 0xbd, 0x81, 0xd8, 0xc3, 0x3b, 0xe6, 0x2d, 0xa6, 0xbd,
  0x81, 0x39, 0x4e, 0xbd, 0xed, 0x12, 0x7b, 0xbd, 0xb8, 0x91, 0xca, 0xbc,
  0x0a, 0x6e, 0x92, 0x3e, 0xc3, 0xe8, 0x2f, 0x3e, 0x80, 0x98, 0x23, 0xbe,
  0x35, 0x97, 0xdb, 0xbc, 0xf9, 0x48, 0x42, 0x3e, 0x7d, 0xa5, 0x88, 0xbe,
  0xf2, 0xf6, 0x34, 0xbd, 0x8b, 0x69, 0x2b, 0xbe, 0x9d, 0x26, 0xb7, 0x3d,
  0x5a, 0xf4, 0xda, 0xbd, 0xb6, 0x6a, 0x3e, 0x3d, 0x38, 0x6b, 0x4e, 0x3e,
  0x75, 0x6d, 0x4e, 0xbd, 0xac, 0x54, 0x35, 0xbe, 0xa4, 0x55, 0x37, 0xbc,
  0x41, 0x02, 0x3d, 0xbe, 0x42, 0xd1, 0x0b, 0xbe, 0x83, 0x9e, 0xa5, 0xbe,
  0x9f, 0x2e, 0xcd, 0x3c, 0x17, 0xaa, 0x89, 0x3e, 0x50, 0x0d, 0x57, 0x3e,
  0x7e, 0x08, 0x20, 0xbe, 0x2b, 0xd9, 0x2d, 0x3e, 0x18, 0x91, 0xcc, 0xbd,
  0x87, 0x18, 0x95, 0x3d, 0x2d, 0x32, 0xaa, 0xbd, 0xe5, 0x03, 0x35, 0x3e,
  0xff, 0xb9, 0xd3, 0x3d, 0x82, 0x21, 0x13, 0x3d, 0xb9, 0x24, 0x03, 0xbe,
  0xed, 0x9a, 0x94, 0x3e, 0x07, 0x16, 0x10, 0xbd, 0x32, 0x9a, 0x2a, 0x3e,
  0xe3, 0xc3, 0x4b, 0xbe, 0xe1, 0xa9, 0x56, 0x3e, 0xe0, 0x91, 0xaa, 0x3e,
  0xa4, 0xb2, 0x33, 0x3e, 0xa9, 0x4a, 0x67, 0xbe, 0x97, 0xdc, 0xa0, 0x3d,
  0x6c, 0x6b, 0xd5, 0xbb, 0xf3, 0x2c, 0x18, 0xbe, 0xb5, 0x6a, 0x57, 0x3e,
  0x44, 0xdf, 0x7f, 0xbd, 0x09, 0xd3, 0x94, 0x3d, 0x8f, 0x5d, 0x21, 0x3e,
  0x94, 0x49, 0x37, 0x3e, 0xb6, 0x4c, 0x8c, 0xbd, 0xdd, 0x4a, 0xdf, 0xbd,
  0x2b, 0x7b, 0x1c, 0xbd, 0xca, 0x04, 0x89, 0x3c, 0x2a, 0x99, 0xf5, 0xbd,
  0x6f, 0xb9, 0x1d, 0x3e, 0x0e, 0x8e, 0xeb, 0x3d, 0xdc, 0x93, 0xab, 0xbc,
  0xd2, 0x40, 0x9c, 0xbb, 0x21, 0xb3, 0xa4, 0xbe, 0x34, 0x02, 0x2b, 0x3e,
  0x18, 0xa8, 0x0a, 0x3e, 0x46, 0xed, 0xde, 0xbd, 0x94, 0xbf, 0xd6, 0xbd,
  0x1e, 0x6f, 0xea, 0xbd, 0x66, 0xb1, 0x6f, 0x3e, 0x2e, 0x7f, 0x06, 0xbd,
  0x3f, 0x38, 0x35, 0xbd, 0xb0, 0xed, 0xf1, 0x3d, 0xee, 0x2b, 0xbb, 0x3e,
  0xcb, 0x38, 0xc1, 0xbe, 0x42, 0xf5, 0x10, 0x3c, 0x8b, 0x4e, 0x91, 0xbd,
  0xf6, 0x37, 0x8d, 0x3d, 0xec, 0x4e, 0xfe, 0xbd, 0x3f, 0xf5, 0x8c, 0xbe,
  0x4a, 0xd1, 0x02, 0x3a, 0x55, 0xc0, 0xa3, 0xbe, 0x05, 0x82, 0x80, 0xbe,
  0xa4, 0x86, 0x2b, 0x3e, 0xae, 0x70, 0x6c, 0x3e, 0xe5, 0xc3, 0x9e, 0xbd,
  0x1d, 0x41, 0x9a, 0xbe, 0xa9, 0x0c, 0x72, 0x3d, 0x7f, 0x0c, 0x0d, 0xbe,
  0x5e, 0x88, 0x35, 0x3e, 0xcd, 0x8c, 0x34, 0x3d, 0xa1, 0x14, 0x86, 0x3d,
  0x87, 0x3f, 0xae, 0x3e, 0x3b, 0x31, 0xe4, 0xbc, 0xf7, 0xa6, 0x71, 0xbe,
  0x85, 0xaa, 0x29, 0x3e, 0xc8, 0xa3, 0x2b, 0x3d, 0x87, 0x72, 0x8a, 0x3c,
  0xb2, 0x64, 0x7d, 0x3e, 0xc0, 0xe4, 0x97, 0x3d, 0x13, 0x19, 0x1d, 0xbd,
  0x74, 0x95, 0x5b, 0x3e, 0xd3, 0x20, 0x50, 0x3e, 0xfb, 0xdc, 0x2f, 0x3e,
  0x78, 0xc8, 0x9c, 0xbc, 0x47, 0x4a, 0x1e, 0xbd, 0x18, 0x86, 0x43, 0xbd,
  0xec, 0xa1, 0x20, 0x3d, 0x6d, 0xd8, 0x82, 0x3d, 0xf3, 0x53, 0x86, 0xbd,
  0xba, 0xac, 0xeb, 0xbb, 0x0e, 0x9b, 0x0d, 0xbe, 0xa2, 0xdc, 0xd2, 0xbe,
  0xcc, 0x77, 0x94, 0xbe, 0x3b, 0xa5, 0xa4, 0xbe, 0x2f, 0xab, 0x82, 0xbe,
  0xd5, 0x56, 0xaf, 0x3c, 0x38, 0xb5, 0x11, 0x3d, 0xa6, 0x9b, 0x2f, 0x3e,
  0xbc, 0x52, 0xb3, 0x39, 0x1b, 0x8a, 0x3e, 0xbd, 0xc3, 0xf8, 0xdb, 0xbd,
  0xdf, 0x1d, 0xc7, 0xbd, 0x31, 0x58, 0x96, 0x3d, 0x0f, 0x5c, 0x12, 0x3c,
  0x92, 0xf7, 0xc0, 0xbe, 0xf6, 0xa5, 0x3c, 0xbd, 0x96, 0xf1, 0xba, 0x3b,
  0x96, 0x21, 0xbd, 0xbe, 0xdb, 0x04, 0x02, 0x3e, 0xe2, 0xee, 0xdd, 0xbd,
  0x2a, 0xe6, 0x29, 0xbd, 0xe6, 0x3d, 0x15, 0xbd, 0x3d, 0xbd, 0x1a, 0xbe,
  0x04, 0xba, 0x7f, 0x3e, 0x8d, 0x0b, 0x9a, 0x3e, 0xfd, 0x84, 0xd6, 0x3c,
  0x4a, 0xb8, 0xc4, 0xbc, 0xc0, 0x70, 0xa3, 0xbd, 0x37, 0x11, 0x5f, 0x3e,
  0xe6, 0xb6, 0xfe, 0xbc, 0x1d, 0xca, 0x9b, 0xbc, 0xb6, 0x8d, 0x96, 0x3e,
  0xef, 0x6b, 0x9b, 0xbd, 0x06, 0x38, 0x31, 0x3e, 0x9d, 0x64, 0xcf, 0xbd,
  0x8e, 0xca, 0xcc, 0xba, 0xce, 0xd9, 0x6d, 0xbe, 0x2d, 0x6d, 0x39, 0x3e,
  0x25, 0x9e, 0xd8, 0xbd, 0x28, 0x0d, 0xc5, 0x3e, 0x5f, 0xee, 0xae, 0x3d,
  0x27, 0x3d, 0x25, 0x3e, 0xea, 0x2c, 0x31, 0x3e, 0xf5, 0xf2, 0x3b, 0xbd,
  0x01, 0x75, 0x01, 0xbe, 0xc4, 0xa7, 0xa4, 0x3c, 0x90, 0x57, 0xbb, 0xbe,
  0x71, 0x9b, 0xd9, 0xbc, 0x61, 0xe3, 0x8e, 0xbd, 0x37, 0x07, 0xb6, 0x3c,
  0xbd, 0x24, 0x5b, 0xbd, 0x83, 0x9c, 0x0e, 0xbe, 0x98, 0x2b, 0x7d, 0x3e,
  0x2b, 0x1c, 0x00, 0x3e, 0x23, 0x41, 0xc9, 0xbe, 0x44, 0x32, 0x87, 0xbc,
  0xb9, 0xb6, 0x0f, 0xbe, 0xf8, 0xe6, 0x4d, 0xbd, 0x56, 0x0d, 0x54, 0x3d,
  0x11, 0xc0, 0x7c, 0xbe, 0xa2, 0xa4, 0x6a, 0x3e, 0xdc, 0x48, 0x4c, 0x3c,
  0x81, 0x19, 0x28, 0xbe, 0x6b, 0xc2, 0xf0, 0x3d, 0xb2, 0xa9, 0x02, 0x3e,
  0xd0, 0xf6, 0x20, 0xbe, 0x9b, 0x12, 0xa6, 0xbd, 0x01, 0x04, 0x73, 0x3d,
  0x54, 0xc9, 0x05, 0x3d, 0xb5, 0x1f, 0x9d, 0x3c, 0xbb, 0x07, 0xa9, 0x3c,
  0x68, 0x55, 0x25, 0xbe, 0xe6, 0x0f, 0x8e, 0x3d, 0x01, 0xd0, 0xe1, 0xbd,
  0xe0, 0x6e, 0x58, 0xbe, 0x67, 0x3a, 0xf4, 0x3c, 0x24, 0xa6, 0x1f, 0xbd,
  0xb6, 0xa4, 0xea, 0x3d, 0x5d, 0xdc, 0x9f, 0xbd, 0x70, 0x8c, 0x24, 0xbd,
  0xe5, 0xbb, 0xab, 0x3b, 0x7a, 0x94, 0xaf, 0xbc, 0xc4, 0x9e, 0xbb, 0xbe,
  0x08, 0x85, 0x05, 0xbe, 0xfb, 0x4d, 0x09, 0x3e, 0xc8, 0x03, 0x61, 0xbd,
  0x8e, 0x40, 0xe4, 0xbd, 0x8f, 0x41, 0xed, 0xbd, 0x8a, 0x2d, 0xfb, 0x3d,
  0x80, 0xef, 0xfc, 0x3d, 0x15, 0xfc, 0x0c, 0xbb, 0x60, 0x73, 0xd3, 0x3d,
  0x54, 0x0c, 0xed, 0xbc, 0xfd, 0xc8, 0x19, 0x3d, 0x6c, 0x10, 0x10, 0x3e,
  0xb6, 0xd0, 0x81, 0xbe, 0xde, 0xd0, 0xab, 0xbe, 0x83, 0x88, 0x19, 0xbe,
  0x1d, 0x39, 0xf7, 0x38, 0x33, 0x2c, 0xba, 0xba, 0xb0, 0x4b, 0x64, 0xbe,
  0xdc, 0x8c, 0x47, 0x3e, 0x83, 0xfd, 0xc8, 0xbc, 0x33, 0x77, 0xec, 0x3d,
  0x8f, 0xf5, 0xed, 0x3c, 0xed, 0x0c, 0x9c, 0xbe, 0x8b, 0x47, 0x04, 0xbd,
  0x51, 0x85, 0x6a, 0xbe, 0xe5, 0xab, 0xa9, 0x3d, 0x18, 0x51, 0x9b, 0x3d,
  0x67, 0x9c, 0x58, 0xbd, 0x69, 0x27, 0x60, 0xbd, 0xff, 0x19, 0x8f, 0x3e,
  0x2a, 0x11, 0x87, 0x3d, 0x86, 0xdc, 0x83, 0x3d, 0xa8, 0x7b, 0x5b, 0xbe,
  0xaa, 0xcc, 0xc4, 0x3d, 0xc9, 0x01, 0xdf, 0xbd, 0x6f, 0x58, 0xae, 0xbe,
  0x50, 0x3e, 0xa1, 0x3d, 0xec, 0x53, 0xb2, 0xbd, 0xc3, 0x6a, 0x8f, 0x3e,
  0x8b, 0x18, 0x37, 0x3e, 0x98, 0xd7, 0x07, 0xbe, 0x06, 0x73, 0xf4, 0xbd,
  0x0f, 0x8b, 0x8e, 0x3e, 0x36, 0x8e, 0x47, 0x3e, 0x12, 0x37, 0x6f, 0xbd,
  0xd8, 0x6f, 0x43, 0x3e, 0xe3, 0x17, 0x18, 0xbe, 0xaa, 0x0c, 0xc7, 0xbd,
  0x05, 0x4c, 0x1f, 0xbd, 0xfd, 0x91, 0x59, 0xbc, 0xb0, 0x0c, 0x38, 0xbe,
  0x12, 0x13, 0x1f, 0xbe, 0xe0, 0xce, 0x5c, 0xbe, 0x64, 0x82, 0xf7, 0xbd,
  0xf2, 0x02, 0xb2, 0x3d, 0x31, 0x51, 0x6f, 0xbd, 0x4a, 0x21, 0x3b, 0x3d,
  0xf3, 0x2f, 0x9a, 0xbe, 0x47, 0xe0, 0xc6, 0xbd, 0xe3, 0x2c, 0x96, 0xbe,
  0x05, 0x27, 0xd0, 0xbd, 0xdd, 0x24, 0xdd, 0xbd, 0x02, 0x86, 0x85, 0xbe,
  0x1b, 0xe4, 0x92, 0x3e, 0xb0, 0x48, 0x56, 0xbe, 0x43, 0xbd, 0xeb, 0xbb,
  0xcc, 0xa9, 0x54, 0xbe, 0xb6, 0x68, 0x11, 0x3e, 0x27, 0x58, 0xc8, 0xbd,
  0x0c, 0x4e, 0xcf, 0xbc, 0x8c, 0x19, 0xd7, 0x3c, 0x3d, 0xc7, 0x86, 0xbe,
  0x76, 0x62, 0x71, 0x3d, 0xdf, 0x41, 0xf4, 0xbd, 0xbe, 0xd3, 0xe9, 0x3d,
  0x28, 0xaf, 0xf3, 0xbd, 0xba, 0x65, 0x96, 0x3e, 0x6d, 0x6e, 0x78, 0x3d,
  0xda, 0xaf, 0x5f, 0xbe, 0x4c, 0x55, 0x1f, 0xbd, 0x65, 0x25, 0xe2, 0xbd,
  0x7b, 0x1a, 0x0b, 0xbe, 0x87, 0xad, 0x62, 0x3e, 0xaf, 0x84, 0x3e, 0xbe,
  0xbe, 0x63, 0xc1, 0xbe, 0x01, 0x87, 0x7f, 0x3e, 0xed, 0x3b, 0x50, 0x3e,
  0xa2, 0x10, 0x06, 0xbe, 0xde, 0xe8, 0x24, 0xbe, 0x50, 0x2d, 0x73, 0xbe,
  0x92, 0xed, 0x58, 0x3e, 0x18, 0x88, 0xbe, 0x3e, 0x66, 0x44, 0xdf, 0xbd,
  0xfe, 0xa2, 0x2b, 0x3e, 0x16, 0x16, 0x95, 0xbd, 0x94, 0x8d, 0x28, 0xbe,
  0x46, 0x04, 0x4d, 0x3e, 0x32, 0x3a, 0xa1, 0x3e, 0xe0, 0xc7, 0xa6, 0x3d,
  0xec, 0x15, 0x90, 0x3d, 0xd6, 0xfe, 0xd2, 0xbb, 0xf1, 0x5c, 0x40, 0x3d,
  0x21, 0x00, 0xa2, 0x3e, 0xcc, 0x6a, 0x45, 0xbe, 0xbd, 0xe1, 0xc6, 0xbe,
  0xea, 0x4a, 0x8b, 0xbe, 0xbb, 0x9c, 0x41, 0xbe, 0x67, 0xbb, 0x88, 0x3e,
  0x96, 0x23, 0x9d, 0xbe, 0x06, 0xf9, 0x61, 0x3e, 0xed, 0xdf, 0x00, 0xbe,
  0xd6, 0x05, 0xac, 0xbc, 0x74, 0x6b, 0x59, 0xbe, 0x5b, 0x1d, 0xe8, 0x3d,
  0xb8, 0x40, 0x8a, 0xbe, 0xc5, 0x3e, 0x2b, 0x3e, 0xb0, 0x5f, 0x18, 0x3a,
  0x61, 0xcb, 0x10, 0xbe, 0xb5, 0xc3, 0x73, 0x3d, 0xde, 0x62, 0x06, 0x3e,
  0xf0, 0x0e, 0xa8, 0x3d, 0x67, 0xf0, 0x0a, 0xbc, 0xb9, 0xb3, 0xfd, 0xbd,
  0xd5, 0xf4, 0xf1, 0xbd, 0x2d, 0x6a, 0x3e, 0x3e, 0x57, 0xde, 0x3d, 0x3e,
  0xd1, 0x18, 0xbb, 0xbd, 0x4c, 0xb2, 0xd1, 0xbd, 0x91, 0x41, 0x74, 0xbd,
  0xe3, 0x39, 0x6c, 0xbc, 0xb8, 0xfa, 0x16, 0x3e, 0xcf, 0x01, 0x1f, 0x3e,
  0x07, 0x87, 0xb7, 0x3e, 0xb0, 0x81, 0x8b, 0x3d, 0x8d, 0x55, 0x30, 0xbe,
  0x9e, 0x56, 0xf6, 0xbc, 0x4c, 0x9b, 0xa8, 0x3c, 0x70, 0xfd, 0xef, 0xbd,
  0x8a, 0x74, 0x7e, 0x3e, 0x9e, 0x9a, 0x8f, 0xbe, 0x3a, 0xe9, 0x86, 0x3e,
  0x34, 0x75, 0x97, 0xbe, 0x8f, 0x45, 0x03, 0x3d, 0x48, 0x6a, 0x59, 0x3e,
  0xe9, 0x3c, 0x14, 0x3e, 0x37, 0xe3, 0xfb, 0xbd, 0x87, 0x8a, 0x52, 0x3e,
  0x4c, 0x04, 0xbb, 0x3e, 0x30, 0x55, 0x88, 0x3d, 0x04, 0x39, 0xbf, 0xbe,
  0xb8, 0x8b, 0xa4, 0xbd, 0x36, 0x1d, 0x29, 0x3e, 0x05, 0x6b, 0x42, 0xbd,
  0x46, 0xbc, 0x19, 0xbe, 0x94, 0xc1, 0x61, 0xbe, 0xff, 0x44, 0x83, 0x3d,
  0x03, 0x19, 0xce, 0xbd, 0x6f, 0xe2, 0xda, 0x3d, 0x4f, 0xd6, 0x10, 0x3d,
  0xcf, 0xf5, 0x83, 0x3e, 0xba, 0x13, 0xf6, 0xbd, 0xd9, 0xf1, 0xae, 0xbd,
  0xb4, 0x86, 0x5b, 0xbe, 0x45, 0x47, 0xb8, 0x3c, 0x5b, 0x3a, 0x7a, 0x3d,
  0x12, 0x92, 0xe2, 0xbc, 0xab, 0x09, 0x5f, 0xbe, 0x80, 0x27, 0x5f, 0x3e,
  0xc3, 0x1d, 0x85, 0xbe, 0x72, 0xf4, 0xf5, 0xba, 0xb5, 0x57, 0x96, 0xbe,
  0xdc, 0x69, 0x7a, 0x3e, 0x73, 0xa1, 0xc0, 0x3d, 0xb6, 0xcb, 0x9a, 0xbe,
  0x7b, 0xa2, 0x07, 0x3c, 0x39, 0x51, 0x5a, 0x3e, 0xf2, 0xf2, 0xff, 0xff,
  0x04, 0x00, 0x00, 0x00, 0x80, 0x02, 0x00, 0x00, 0x67, 0x9d, 0xb7, 0xbe,
  0xd2, 0x35, 0x01, 0x3d, 0xf1, 0x47, 0x9b, 0xbe, 0xf8, 0x8a, 0xab, 0xbe,
  0x6d, 0xc3, 0x7b, 0xbe, 0xa7, 0x92, 0x53, 0x3e, 0x48, 0xd2, 0x40, 0x3e,
  0x28, 0xe4, 0x59, 0xbd, 0x7a, 0xae, 0x41, 0x3e, 0x48, 0x52, 0x11, 0xbe,
  0x02, 0x63, 0x1d, 0xbe, 0x0f, 0x3e, 0xca, 0x3e, 0x98, 0xa7, 0xed, 0xbd,
  0x3b, 0x39, 0xdc, 0x3d, 0xa3, 0x39, 0x01, 0xbe, 0xf4, 0xe6, 0xbc, 0xbd,
  0xb1, 0xa2, 0x0d, 0x3e, 0xa0, 0x50, 0x48, 0x3e, 0xb0, 0xbb, 0x0e, 0x3e,
  0x30, 0x50, 0xd3, 0xbd, 0xb1, 0x4f, 0xea, 0xbe, 0xf4, 0x53, 0x28, 0xbe,
  0x95, 0xaf, 0x3f, 0xbe, 0x3b, 0x87, 0xa2, 0x3e, 0x8c, 0x3b, 0x1f, 0xbe,
  0x35, 0xed, 0x1d, 0x3e, 0x1f, 0x31, 0x56, 0x3e, 0xcc, 0xc8, 0x3c, 0xbe,
  0xf5, 0x4a, 0x10, 0x3c, 0x6e, 0x97, 0x8c, 0xbc, 0xe0, 0x12, 0xf0, 0x3e,
  0x0d, 0x76, 0x4d, 0x3c, 0xd2, 0x91, 0x60, 0x3e, 0x39, 0x0f, 0x62, 0xbc,
  0x9b, 0x38, 0x4e, 0x3e, 0x7f, 0xef, 0x86, 0xbd, 0x7f, 0x4c, 0xcc, 0xbe,
  0xbe, 0xf2, 0x9f, 0x3e, 0xa8, 0x2e, 0x46, 0xbe, 0x9f, 0x39, 0x95, 0xbd,
  0xfe, 0x84, 0x73, 0xbe, 0x5e, 0xcf, 0xd3, 0x3d, 0xcb, 0x33, 0x93, 0x3e,
  0xe0, 0xc7, 0x53, 0x3c, 0xff, 0x51, 0x98, 0xbe, 0xc8, 0x4e, 0x06, 0xbf,
  0x2b, 0x4a, 0xc2, 0x3d, 0x3e, 0xda, 0xb2, 0xbe, 0x66, 0x95, 0x53, 0xbd,
  0x89, 0x95, 0x95, 0x3e, 0x12, 0xca, 0xd3, 0xbe, 0xe8, 0xac, 0xf9, 0xbc,
  0x7d, 0x28, 0x22, 0x3e, 0x78, 0x53, 0x96, 0xbe, 0xb0, 0x8b, 0x54, 0xbe,
  0x73, 0xa5, 0xf6, 0xbd, 0xdf, 0x74, 0x8b, 0xbe, 0xc9, 0x2d, 0x95, 0xbe,
  0x8e, 0x94, 0xa7, 0xbe, 0x85, 0xc7, 0x7d, 0xbe, 0x81, 0xda, 0x96, 0x3e,
  0x49, 0x39, 0xd2, 0xbc, 0x27, 0xfa, 0xd1, 0xbe, 0xf1, 0xee, 0xdd, 0xbe,
  0xb9, 0xdb, 0xd6, 0xbc, 0x28, 0xad, 0x54, 0x3e, 0x26, 0x7f, 0x9a, 0xbd,
  0x03, 0x6c, 0xe0, 0x3c, 0xd3, 0xd2, 0x48, 0x3c, 0x79, 0x45, 0xca, 0xbd,
  0x9d, 0x74, 0x28, 0x3c, 0xca, 0xc5, 0xb3, 0x3e, 0x60, 0x1f, 0xd1, 0x3c,
  0x9a, 0x7f, 0xbf, 0xbe, 0x87, 0x9e, 0x4b, 0x3e, 0x1c, 0x67, 0x73, 0x3d,
  0x55, 0x19, 0x8f, 0xbc, 0xa6, 0x0d, 0x2f, 0x3e, 0xbf, 0x7b, 0xc7, 0xbb,
  0xc7, 0xf5, 0x03, 0x3d, 0x28, 0x2b, 0x91, 0x3c, 0x2e, 0x5a, 0xef, 0x3e,
  0x2c, 0xa1, 0x95, 0xbe, 0xe0, 0xd9, 0x80, 0xbe, 0x56, 0x62, 0xcf, 0xbd,
  0xe0, 0xf9, 0xa3, 0x3e, 0x95, 0x4e, 0x38, 0xbb, 0xe1, 0x08, 0xe6, 0xbd,
  0x1c, 0x5c, 0x88, 0xbe, 0xce, 0xc9, 0x7f, 0x3e, 0x4b, 0x0f, 0xd7, 0x3d,
  0x56, 0xde, 0x98, 0x3e, 0xe1, 0xf5, 0x57, 0xbd, 0x39, 0xe2, 0x95, 0x3e,
  0x38, 0x29, 0x02, 0x3e, 0x3e, 0xb8, 0x60, 0xbe, 0xb5, 0x35, 0xe4, 0xbd,
  0x6b, 0x9d, 0x78, 0x3e, 0x49, 0x87, 0x80, 0x3d, 0xa6, 0xee, 0x77, 0xbc,
  0x63, 0x6f, 0x9d, 0xbe, 0x88, 0xb4, 0x30, 0xbe, 0x58, 0x48, 0x2c, 0xbe,
  0xcf, 0x89, 0xd9, 0x3c, 0x63, 0xf5, 0x1f, 0x3e, 0x00, 0xd8, 0x3c, 0x3d,
  0x00, 0x25, 0x98, 0x3e, 0x2f, 0x9f, 0x3f, 0xbe, 0x7f, 0x05, 0xdc, 0xbd,
  0x44, 0x51, 0x43, 0x3e, 0xf8, 0x4e, 0x3e, 0xbe, 0x68, 0x7f, 0x97, 0xbc,
  0x08, 0x86, 0x53, 0xbe, 0x7c, 0x70, 0xbd, 0x3d, 0xba, 0x98, 0x22, 0x3d,
  0x8b, 0x22, 0x90, 0x3d, 0x36, 0x88, 0x1d, 0x3e, 0x47, 0x50, 0x2c, 0xbe,
  0x24, 0x2a, 0x1c, 0xbd, 0x19, 0x20, 0xdf, 0xbe, 0xc6, 0x8e, 0x96, 0x3e,
  0x4f, 0xa3, 0x8a, 0xbe, 0x7b, 0x63, 0x8f, 0x3e, 0xfd, 0x6e, 0xe6, 0x3e,
  0x0f, 0xfe, 0x0f, 0xbe, 0x61, 0x79, 0xc1, 0x3d, 0x9f, 0x24, 0xd1, 0x3e,
  0xfd, 0x29, 0x4b, 0x3e, 0x9a, 0xe3, 0x4e, 0xbe, 0x11, 0x9a, 0x20, 0x3e,
  0xff, 0x5d, 0x88, 0x3d, 0x0e, 0xd6, 0x2c, 0x3e, 0x4e, 0xdf, 0x92, 0xbe,
  0xa3, 0x38, 0xa1, 0x3e, 0xb4, 0x2e, 0xa7, 0x3c, 0x6c, 0xe0, 0x63, 0x3d,
  0xc8, 0x1f, 0x82, 0xbe, 0x9b, 0x7e, 0x2a, 0xbe, 0x08, 0x78, 0x81, 0x3d,
  0x6c, 0x52, 0x42, 0xbc, 0x91, 0xe7, 0x80, 0x3d, 0x70, 0x24, 0xec, 0x3c,
  0xac, 0x7d, 0x84, 0x3e, 0x64, 0x9f, 0x36, 0xbe, 0x83, 0x62, 0x3d, 0xbe,
  0x10, 0xf5, 0x48, 0xbe, 0xd5, 0x12, 0x19, 0x3d, 0x48, 0xda, 0xd8, 0xbe,
  0x6c, 0x2b, 0xa6, 0x3c, 0xc4, 0x37, 0x07, 0xbf, 0x1e, 0xdc, 0x03, 0xbf,
  0x48, 0x11, 0x3c, 0xbe, 0xc0, 0xcf, 0x69, 0x3e, 0x9d, 0x58, 0xac, 0x3e,
  0x3a, 0xc9, 0xd9, 0xbe, 0xd2, 0xe5, 0x99, 0xbe, 0xe8, 0xd1, 0xc8, 0xbe,
  0x26, 0x59, 0xbc, 0x3e, 0xd9, 0xcf, 0x04, 0xbe, 0xd5, 0x36, 0x6a, 0xbd,
  0x7e, 0xf5, 0xff, 0xff, 0x04, 0x00, 0x00, 0x00, 0x60, 0x09, 0x00, 0x00,
  0x20, 0x9a, 0x61, 0xbe, 0x07, 0x80, 0x02, 0xbe, 0x7d, 0xa3, 0x15, 0xbe,
  0xae, 0x51, 0x2b, 0xbe, 0x58, 0xdc, 0x97, 0xbe, 0x3a, 0x96, 0x1e, 0xbe,
  0xc5, 0xa5, 0x37, 0x3e, 0x78, 0x62, 0x82, 0xbc, 0xd5, 0xb9, 0xa5, 0x3d,
  0x8a, 0x02, 0xef, 0x3d, 0xa6, 0x74, 0x89, 0x3e, 0x88, 0x30, 0x46, 0x3e,
  0xd2, 0x7b, 0x8d, 0xbe, 0x17, 0x4a, 0xa5, 0xbd, 0x81, 0x19, 0xd9, 0xbd,
  0x90, 0x0c, 0xd5, 0x3d, 0x5d, 0x3b, 0x30, 0xbb, 0xcc, 0x3d, 0x1c, 0x3d,
  0x3a, 0x56, 0x8d, 0xbd, 0x9c, 0xcb, 0x61, 0xbd, 0x28, 0x9b, 0x27, 0x3e,
  0xd1, 0xa3, 0x90, 0x3d, 0x1c, 0x7e, 0x19, 0xbc, 0x2c, 0x0f, 0x4e, 0x3d,
  0xba, 0xc2, 0x9c, 0xbd, 0xbb, 0x84, 0x47, 0xbe, 0x87, 0x84, 0x7e, 0x3d,
  0xda, 0x4a, 0x89, 0x3e, 0x01, 0xb0, 0xbf, 0x3d, 0x18, 0x61, 0x04, 0x3e,
  0xc4, 0x31, 0xa4, 0x3d, 0x77, 0x03, 0x19, 0xbd, 0x68, 0x8e, 0x35, 0xbe,
  0x03, 0x2b, 0x2f, 0xbe, 0x20, 0xbc, 0x93, 0xbd, 0x10, 0x89, 0xf0, 0x3c,
  0x98, 0xe0, 0xff, 0x3c, 0x46, 0xc4, 0xd2, 0x3d, 0xd7, 0xa1, 0x31, 0x3c,
  0xa7, 0x5a, 0x4b, 0xbe, 0x2d, 0x6a, 0x99, 0xbc, 0x33, 0xe6, 0x02, 0xbe,
  0xf7, 0xe9, 0xeb, 0x3a, 0x7a, 0x31, 0x67, 0xbe, 0x28, 0x04, 0xd4, 0xbd,
  0x01, 0xfb, 0xf4, 0x3d, 0x9f, 0x28, 0xed, 0x3d, 0x21, 0xcb, 0x1f, 0xbd,
  0x9c, 0xe8, 0x4f, 0x3e, 0x63, 0xbb, 0x7b, 0x3d, 0x89, 0xfd, 0x6f, 0xbd,
  0xcd, 0x1f, 0xaa, 0xbd, 0x2f, 0x9e, 0x6c, 0xbe, 0x3e, 0x6b, 0x1b, 0xbc,
  0xab, 0x31, 0x16, 0x3e, 0xa1, 0x0c, 0xcf, 0x3d, 0x00, 0xf8, 0x93, 0xbd,
  0x00, 0xbe, 0xa3, 0xba, 0x3a, 0xb0, 0x30, 0xbd, 0xfd, 0x2b, 0x49, 0x3e,
  0xa7, 0x5f, 0x1d, 0x3e, 0xac, 0x8d, 0x14, 0x3d, 0x2d, 0x3d, 0xc3, 0xbc,
  0x7d, 0xd2, 0x97, 0xbd, 0x97, 0xfc, 0x51, 0x3e, 0xc8, 0x4d, 0x09, 0x3d,
  0xeb, 0x98, 0x4a, 0x3c, 0x87, 0x53, 0x74, 0xbc, 0xa7, 0x59, 0xb2, 0x3d,
  0x1e, 0xe9, 0xf3, 0x3d, 0x95, 0x3b, 0x35, 0x3e, 0x6b, 0x9f, 0xa3, 0xbe,
  0xb6, 0xa3, 0x3a, 0xbe, 0x81, 0xd8, 0x55, 0xbd, 0xa7, 0x69, 0x20, 0xbc,
  0x05, 0x2c, 0x86, 0x3b, 0xab, 0x9b, 0x84, 0xbd, 0x6b, 0x8d, 0x2d, 0xbe,
  0x91, 0x82, 0x06, 0xbe, 0xe4, 0xfe, 0xa2, 0x3e, 0xbe, 0x0e, 0x3b, 0x3e,
  0x6e, 0x19, 0x9a, 0xbe, 0x9e, 0xd6, 0x08, 0x3c, 0x5b, 0xc5, 0xdf, 0x3d,
  0x76, 0x8e, 0x15, 0x3e, 0xc2, 0xb4, 0x80, 0xbd, 0xa5, 0x49, 0xda, 0xbd,
  0x29, 0xc7, 0xc1, 0x3c, 0xb4, 0x56, 0x5a, 0x3e, 0xf7, 0xd0, 0xe4, 0xbd,
  0x44, 0x59, 0x4c, 0x3c, 0x64, 0x2d, 0x65, 0x3e, 0x86, 0xd6, 0x2e, 0x3d,
  0x36, 0xee, 0x1c, 0x3e, 0x18, 0xa4, 0xbd, 0xbd, 0x4a, 0x67, 0xca, 0x3d,
  0x27, 0x67, 0x9b, 0x3d, 0x10, 0xe1, 0x49, 0x3e, 0x02, 0x6d, 0xbc, 0xbd,
  0x3f, 0x50, 0x15, 0xbe, 0x71, 0xdb, 0x8c, 0x3e, 0xdb, 0xb6, 0xb1, 0xbd,
  0x60, 0x5d, 0xb9, 0x3d, 0x58, 0xd8, 0xb9, 0x3d, 0x3e, 0x26, 0x66, 0xbd,
  0xd6, 0x6a, 0x39, 0x3e, 0x51, 0x13, 0x67, 0xbd, 0x34, 0x6f, 0x17, 0x3e,
  0x84, 0x59, 0x2d, 0x3d, 0x98, 0xdb, 0x8e, 0xbe, 0x6a, 0x19, 0xb5, 0x3d,
  0x37, 0xaa, 0xe1, 0xbd, 0x4b, 0xe5, 0x8f, 0xbe, 0x2c, 0xf6, 0xa1, 0xbd,
  0xe6, 0xed, 0x62, 0x3d, 0x80, 0x0a, 0x30, 0x3d, 0x63, 0x86, 0x33, 0x3e,
  0x83, 0xa3, 0x2c, 0xbe, 0x9d, 0x95, 0x02, 0x3e, 0x51, 0x13, 0x37, 0x3d,
  0x6e, 0xbb, 0xec, 0x3c, 0x1c, 0x43, 0x2a, 0xbc, 0x7a, 0xe9, 0x5d, 0x3d,
  0x4d, 0xfd, 0x52, 0x3c, 0x10, 0x6c, 0x11, 0xbe, 0x73, 0xc4, 0x7d, 0x3d,
  0xe2, 0xfd, 0xbf, 0xbd, 0x3a, 0x5c, 0x00, 0x3e, 0xe6, 0x9a, 0x59, 0xbd,
  0x2e, 0x01, 0xd0, 0x3d, 0xaf, 0xd8, 0x50, 0x3d, 0x5b, 0x10, 0x8d, 0xbd,
  0xba, 0xd0, 0x8b, 0x3d, 0x54, 0x5d, 0x09, 0xbe, 0x80, 0xb2, 0x15, 0xbd,
  0x2f, 0x7f, 0x00, 0x3d, 0x51, 0x14, 0x23, 0x3e, 0x88, 0x00, 0x61, 0xbe,
  0x96, 0xc3, 0xac, 0xbd, 0x11, 0x1b, 0x19, 0x3d, 0x31, 0x7e, 0xe6, 0x3d,
  0x42, 0x20, 0x2c, 0xbe, 0xd0, 0xa4, 0xe5, 0xbc, 0x82, 0x4b, 0xa6, 0xbd,
  0xb4, 0xa0, 0x80, 0xbd, 0x09, 0x6c, 0xd8, 0xbd, 0xeb, 0x99, 0xc4, 0xbd,
  0x10, 0x8b, 0x96, 0xbd, 0x21, 0x2d, 0x24, 0xbe, 0xaf, 0x4b, 0xea, 0x3d,
  0xfb, 0xbc, 0x4b, 0x3d, 0x83, 0x5f, 0xeb, 0x3c, 0x2e, 0xc6, 0xa9, 0xbd,
  0x91, 0x45, 0x19, 0xbe, 0x41, 0x0c, 0x04, 0x3c, 0x93, 0xb2, 0x01, 0x3e,
  0xa3, 0x63, 0x74, 0xbe, 0xea, 0xcf, 0x5b, 0x3c, 0x7e, 0x30, 0x8e, 0x3e,
  0xb1, 0x39, 0x28, 0x3e, 0x6d, 0xba, 0x99, 0xbd, 0x31, 0xfe, 0x2b, 0xbe,
  0xa9, 0x83, 0x88, 0xbd, 0xc7, 0x8a, 0x1d, 0xbe, 0xc1, 0xfc, 0xaa, 0xbd,
  0x64, 0xd0, 0x1f, 0x3d, 0x4c, 0xed, 0xcf, 0x3c, 0x5d, 0xe4, 0x1c, 0xbd,
  0x3f, 0x55, 0xd0, 0x3d, 0xee, 0xdf, 0x37, 0x3e, 0x6a, 0xac, 0x30, 0x3e,
  0xed, 0xc8, 0x56, 0x3c, 0xff, 0x21, 0xbe, 0xbc, 0x8f, 0x4a, 0xf2, 0x3c,
  0x18, 0x57, 0xec, 0xbd, 0x7f, 0x01, 0x72, 0x3c, 0x6a, 0xb6, 0x39, 0x3e,
  0xba, 0x71, 0x21, 0xbe, 0xcd, 0xaf, 0xb5, 0x3c, 0xf6, 0xf2, 0x02, 0xbe,
  0x52, 0xe6, 0xfb, 0x3d, 0xfc, 0xd1, 0x20, 0xbe, 0xf2, 0x21, 0x43, 0xbd,
  0xb2, 0x85, 0xe9, 0x3d, 0x72, 0x3a, 0x8e, 0xbc, 0xb7, 0xad, 0x74, 0x3e,
  0x2e, 0x02, 0x83, 0x3d, 0x25, 0xbd, 0xd3, 0xb9, 0x97, 0x6e, 0x90, 0xbd,
  0x3b, 0x89, 0x56, 0xbe, 0x6c, 0x76, 0x89, 0x3c, 0x12, 0x99, 0x13, 0xbd,
  0x6d, 0xa8, 0x65, 0xbe, 0x7f, 0x0b, 0x9f, 0x3d, 0x94, 0xf6, 0x95, 0x3d,
  0x79, 0x3b, 0x08, 0xbe, 0x6c, 0x42, 0xdb, 0xbd, 0xf5, 0xa4, 0xa5, 0x3d,
  0x7b, 0x58, 0x16, 0x3e, 0x5d, 0x95, 0xab, 0xbd, 0x94, 0x53, 0xa1, 0x3d,
  0x9d, 0x79, 0xb4, 0x3d, 0x52, 0xd2, 0x61, 0xbd, 0x4a, 0xef, 0xbe, 0xbd,
  0xc6, 0xd6, 0x27, 0x3e, 0xb9, 0x1a, 0xce, 0x3d, 0x48, 0x46, 0x07, 0x3e,
  0xd2, 0xca, 0xb1, 0xbd, 0x24, 0x71, 0x92, 0xbb, 0x09, 0x37, 0x9b, 0xbe,
  0xe1, 0x98, 0xfb, 0x3d, 0x56, 0x3a, 0xe1, 0xbd, 0x12, 0xc3, 0x67, 0x3d,
  0x21, 0xd2, 0xe8, 0xbd, 0x96, 0xd6, 0x47, 0x3b, 0x22, 0x8a, 0x81, 0xbd,
  0x41, 0xcf, 0xc8, 0xbd, 0x7c, 0x3a, 0x3c, 0x3e, 0x0f, 0x7f, 0x86, 0x3c,
  0xcc, 0x56, 0x6d, 0x3c, 0x7a, 0x69, 0x3c, 0x3d, 0xfb, 0x42, 0x1a, 0xbe,
  0xc3, 0x6b, 0x32, 0x3e, 0x8e, 0x26, 0x23, 0x3e, 0x08, 0x07, 0x61, 0xbe,
  0xd1, 0x12, 0x84, 0x3c, 0x00, 0xe0, 0xf6, 0xbd, 0xcf, 0x47, 0x13, 0x3d,
  0xfd, 0xd1, 0x75, 0x3e, 0x93, 0x37, 0x38, 0xbe, 0x8a, 0xaf, 0x43, 0xbd,
  0x75, 0xd9, 0x31, 0xbe, 0xb6, 0x5e, 0x63, 0x3d, 0xd9, 0xd1, 0x03, 0x3d,
  0xd4, 0x36, 0xc5, 0xbc, 0x5a, 0xf6, 0x35, 0x3e, 0x2e, 0x22, 0xf2, 0x3d,
  0x87, 0x1d, 0x84, 0xbd, 0xff, 0x0d, 0xb7, 0xbd, 0xc2, 0xe3, 0x1b, 0xbe,
  0x23, 0x96, 0x6b, 0x3c, 0x2a, 0x4d, 0x69, 0xbe, 0x12, 0x4f, 0x75, 0xbe,
  0x06, 0x59, 0x98, 0xbe, 0x0d, 0x6e, 0xe3, 0xbd, 0x61, 0xca, 0x1c, 0x3e,
  0xa1, 0x0f, 0xee, 0xbc, 0x3d, 0x55, 0x2f, 0xbe, 0x72, 0xae, 0x5b, 0x3d,
  0xdd, 0x9f, 0xaa, 0xbd, 0x51, 0x5a, 0x8b, 0x3c, 0xe7, 0xf0, 0x84, 0x3d,
  0x39, 0x12, 0x7c, 0x3e, 0x91, 0xfb, 0x80, 0xbb, 0x19, 0x16, 0x0e, 0xbe,
  0xb9, 0xa8, 0x66, 0xbd, 0x2d, 0xa2, 0x4e, 0xbe, 0xa7, 0x99, 0x27, 0x3c,
  0x7e, 0x4d, 0xbd, 0xbc, 0x0c, 0x01, 0x0e, 0xbd, 0x79, 0x1c, 0x78, 0xbe,
  0xb4, 0x9f, 0x4a, 0x3d, 0x85, 0x1d, 0x2a, 0x3d, 0x6f, 0x3d, 0xdf, 0x3c,
  0x1c, 0x7e, 0x75, 0xbd, 0xd0, 0x81, 0x04, 0xbc, 0x19, 0x86, 0x99, 0xbb,
  0x43, 0x69, 0x47, 0xbb, 0xf4, 0x11, 0x0a, 0x3e, 0x3d, 0x80, 0x8f, 0x3d,
  0xec, 0x53, 0x37, 0xbe, 0x96, 0x97, 0x9e, 0x3c, 0x29, 0x97, 0xf6, 0xbd,
  0xa2, 0x80, 0xde, 0x3c, 0xc7, 0x0f, 0x0a, 0x3e, 0x7f, 0xe7, 0xd0, 0x3d,
  0xaa, 0xe1, 0x18, 0x3e, 0xa6, 0x60, 0x2f, 0xbd, 0xb6, 0x25, 0xa1, 0x3d,
  0x2b, 0xb6, 0x5d, 0x3d, 0xd1, 0xa8, 0xe3, 0x3c, 0x0d, 0x68, 0xa0, 0xbd,
  0x53, 0xbc, 0xe1, 0xbd, 0x9d, 0xdb, 0x21, 0x3d, 0xd1, 0x4a, 0x23, 0x3e,
  0x01, 0xd5, 0x4d, 0xbb, 0xb1, 0xf4, 0xe7, 0x3d, 0xee, 0x6e, 0x0e, 0xbe,
  0x8d, 0x82, 0xfb, 0xbd, 0x33, 0xa1, 0x4b, 0x3e, 0xbf, 0x1a, 0x6f, 0xbe,
  0xe5, 0xbd, 0x49, 0x3e, 0x69, 0xd6, 0x08, 0xbe, 0xac, 0xec, 0x99, 0x3c,
  0x54, 0xda, 0x04, 0xbe, 0xac, 0x9a, 0x43, 0x3b, 0xf9, 0x4e, 0x04, 0xbe,
  0x47, 0x91, 0x0f, 0x3d, 0x3f, 0xdd, 0xa0, 0xbd, 0x6e, 0x47, 0xdb, 0x3d,
  0x64, 0xdc, 0xd0, 0x3d, 0xb3, 0x5d, 0xfe, 0x3d, 0xc3, 0x9a, 0x6a, 0xbe,
  0xc5, 0x3d, 0xeb, 0xbc, 0x37, 0x0d, 0xc0, 0x3d, 0xe8, 0x9d, 0x39, 0x3c,
  0x7b, 0x2f, 0xb4, 0x3d, 0x5a, 0x38, 0xcd, 0xbb, 0x11, 0x66, 0xb9, 0x3d,
  0xb5, 0x44, 0x0c, 0x3e, 0xc8, 0x53, 0x77, 0x3d, 0x19, 0xaa, 0x14, 0xbe,
  0xad, 0xe7, 0x5e, 0x3e, 0xc4, 0xc2, 0xee, 0xbd, 0x57, 0x2a, 0xe0, 0x3d,
  0xd8, 0xd4, 0x99, 0x3d, 0x9d, 0x5b, 0x82, 0xbe, 0xb7, 0x3b, 0xb5, 0x3d,
  0xf9, 0xbf, 0xf1, 0xbd, 0xe9, 0x0a, 0x38, 0x3e, 0x1f, 0x81, 0xef, 0xbc,
  0x1d, 0x3f, 0x47, 0x3e, 0xd3, 0xa0, 0x8b, 0x3d, 0x7e, 0xc1, 0x80, 0x3e,
  0xa0, 0x4c, 0xc4, 0x3d, 0xd5, 0x17, 0x39, 0x3e, 0xb2, 0x41, 0xa4, 0xbd,
  0x63, 0xf5, 0xab, 0xbd, 0xfc, 0x4f, 0xda, 0xbd, 0xce, 0xde, 0x70, 0x3e,
  0x13, 0x2f, 0x88, 0xbd, 0x73, 0xbd, 0xb7, 0x3c, 0xf3, 0xea, 0x26, 0xbe,
  0x6b, 0xfc, 0x92, 0x3d, 0x6d, 0x96, 0x54, 0x3e, 0x45, 0xb7, 0x18, 0xba,
  0x76, 0xb8, 0x7d, 0xbe, 0x92, 0x3d, 0x93, 0x3e, 0xa4, 0x29, 0x68, 0xbd,
  0x7b, 0x3b, 0x99, 0xbe, 0xc3, 0xeb, 0x26, 0xbe, 0xc6, 0x27, 0x9b, 0xbd,
  0xeb, 0x8f, 0x0b, 0x3e, 0x6d, 0xbd, 0x89, 0xbe, 0x84, 0xed, 0x3d, 0xbe,
  0xd7, 0x83, 0x8a, 0xbe, 0x35, 0x81, 0xf5, 0xbc, 0x28, 0xd2, 0x47, 0xbd,
  0xcc, 0x9d, 0xaa, 0xbd, 0x7c, 0xab, 0x69, 0x3e, 0x4a, 0xf0, 0x31, 0x3e,
  0x5e, 0xd9, 0x48, 0x3e, 0xc5, 0xdf, 0xec, 0x3d, 0xbc, 0x6a, 0xa0, 0x3d,
  0xe8, 0xb5, 0x1a, 0xbd, 0x8c, 0x59, 0x1b, 0x3d, 0x8d, 0x4e, 0x35, 0xbe,
  0x53, 0x3f, 0x21, 0x3c, 0xeb, 0xc2, 0x3a, 0xbd, 0x2d, 0xbc, 0xbe, 0x3d,
  0x5e, 0x43, 0x06, 0xbe, 0x20, 0xca, 0xf4, 0xbd, 0x0f, 0x84, 0xb8, 0xba,
  0x0e, 0xee, 0x94, 0xbd, 0x1a, 0x3a, 0xb0, 0x3d, 0x87, 0x19, 0xe3, 0xbc,
  0xd3, 0x22, 0x03, 0x3c, 0x60, 0xb7, 0xc3, 0x3d, 0x21, 0x15, 0x31, 0x3d,
  0x77, 0x4d, 0x90, 0xbd, 0x9c, 0xc6, 0xbe, 0x3d, 0xf0, 0xb8, 0x43, 0xbd,
  0x49, 0x79, 0xab, 0xbd, 0xc6, 0x52, 0x8f, 0xbd, 0x4b, 0x27, 0x86, 0xbb,
  0xa7, 0x97, 0x3e, 0xbc, 0xca, 0x9b, 0x48, 0x3e, 0x4e, 0x24, 0x05, 0x3e,
  0x77, 0x5c, 0xda, 0x3b, 0x93, 0x4f, 0x1d, 0x3c, 0x2c, 0xc8, 0xa1, 0x3c,
  0x6f, 0x1e, 0x06, 0xbb, 0x2a, 0x0b, 0xa9, 0xbd, 0x0a, 0xf9, 0xd7, 0x3d,
  0x82, 0x3e, 0xd8, 0x3c, 0xfa, 0x39, 0x0e, 0xbe, 0x2a, 0x65, 0xbc, 0x3c,
  0xba, 0x58, 0x97, 0xbd, 0x1b, 0x60, 0x98, 0x3e, 0x01, 0x2b, 0x13, 0xbc,
  0xdf, 0x75, 0x1d, 0xbc, 0xe2, 0x9c, 0x35, 0xbd, 0x27, 0x03, 0xf6, 0x3d,
  0x59, 0x99, 0x13, 0xbe, 0x44, 0x3f, 0x56, 0x3d, 0xae, 0x38, 0xb3, 0x3d,
  0x73, 0x09, 0x62, 0xbe, 0x3f, 0x1e, 0x9e, 0xbe, 0xf0, 0xf0, 0xfe, 0xbd,
  0x24, 0xad, 0x17, 0xbd, 0xdf, 0x2b, 0x80, 0x3c, 0x30, 0xe7, 0x86, 0xbd,
  0x48, 0x97, 0x6d, 0xbe, 0x00, 0x63, 0x04, 0x3e, 0xa5, 0xd1, 0x37, 0xbd,
  0xc2, 0xc9, 0x83, 0x3c, 0x82, 0x53, 0x7a, 0xbd, 0x08, 0xe3, 0xaf, 0x3c,
  0xf2, 0x99, 0x25, 0xbe, 0xea, 0x2d, 0x33, 0xbc, 0xe2, 0xc9, 0xb7, 0xbd,
  0x2b, 0xad, 0x81, 0x3e, 0x42, 0xf2, 0x69, 0x3e, 0x8d, 0xd2, 0xff, 0xbc,
  0x58, 0x75, 0x1d, 0xbd, 0x83, 0x3a, 0x63, 0xbe, 0x36, 0x02, 0x82, 0x3d,
  0xaa, 0x54, 0x3d, 0xbd, 0x86, 0x46, 0xf4, 0xbd, 0x2e, 0xe5, 0x1d, 0xbd,
  0x04, 0x11, 0xb7, 0xbd, 0xfe, 0x08, 0x72, 0xbb, 0xf3, 0x9e, 0x0b, 0x3d,
  0x01, 0x2b, 0x18, 0x3e, 0x54, 0xdb, 0x1e, 0xbd, 0x98, 0x4b, 0xf8, 0x3d,
  0x86, 0x07, 0xfa, 0xbd, 0x0d, 0x9e, 0xb5, 0xbc, 0x73, 0xc3, 0x22, 0xbd,
  0x7c, 0xb9, 0x1f, 0x3e, 0x08, 0xf7, 0xda, 0x3d, 0x6a, 0x2e, 0xb1, 0xbd,
  0xed, 0x7f, 0x24, 0x3e, 0x74, 0x6c, 0x88, 0x3b, 0xcf, 0x1a, 0xa4, 0xbc,
  0xa1, 0xfc, 0x87, 0xbd, 0x1d, 0x50, 0xda, 0x3d, 0x47, 0xbb, 0x31, 0xbd,
  0xb8, 0xcc, 0x5c, 0x3e, 0x39, 0x80, 0x49, 0xbd, 0x82, 0x2f, 0x3d, 0xbe,
  0x88, 0xc4, 0x2a, 0xbe, 0xc5, 0x31, 0x50, 0x3e, 0x51, 0xb7, 0x87, 0xbe,
  0xa9, 0x8f, 0xd6, 0xbd, 0x07, 0xba, 0x1d, 0xb9, 0x54, 0x1d, 0x10, 0x3d,
  0xb5, 0x53, 0x84, 0x3e, 0x23, 0x24, 0x0d, 0xbe, 0xc4, 0xa6, 0x38, 0x3d,
  0x5d, 0x49, 0xde, 0x3d, 0x2f, 0x93, 0xc5, 0x3d, 0x5e, 0x1f, 0x6c, 0x3e,
  0x12, 0x2d, 0xfe, 0xbd, 0x66, 0x67, 0xd4, 0x3d, 0x4c, 0xa5, 0x92, 0xbe,
  0xa0, 0x96, 0x53, 0xbd, 0xde, 0x3a, 0x07, 0x3b, 0x27, 0xd0, 0xb3, 0x3d,
  0xfc, 0xd3, 0x7a, 0x3d, 0x78, 0x38, 0xf6, 0xbb, 0x72, 0xc2, 0xcf, 0xbd,
  0x46, 0xfc, 0xdc, 0x3c, 0xaa, 0xc7, 0x84, 0xbe, 0xcb, 0x31, 0xe6, 0xbd,
  0x23, 0xfb, 0x0f, 0x3e, 0x76, 0xb3, 0xc9, 0x3d, 0x73, 0x0a, 0xa4, 0xbe,
  0xc9, 0x06, 0xa3, 0x3d, 0x9a, 0x73, 0x50, 0x3e, 0xe4, 0x5a, 0x9f, 0x3c,
  0x84, 0x3f, 0x13, 0xbe, 0x29, 0x86, 0x0a, 0xbd, 0x91, 0x66, 0xf6, 0xbb,
  0x56, 0x1c, 0xff, 0x3c, 0xbc, 0x0e, 0x0d, 0xbe, 0x2d, 0x89, 0x96, 0xbd,
  0xee, 0x57, 0xa3, 0x3c, 0x4a, 0x1c, 0x1a, 0xbe, 0xe7, 0x36, 0x09, 0x3c,
  0x19, 0x94, 0xa3, 0xbd, 0x58, 0xfd, 0x3d, 0x3d, 0x2a, 0x30, 0x66, 0xbe,
  0x25, 0xf6, 0x0b, 0xbe, 0x93, 0x9b, 0x4e, 0x3e, 0x14, 0x55, 0xaa, 0xbd,
  0xf7, 0x2f, 0x2b, 0xbe, 0xf3, 0xdc, 0x9b, 0x3d, 0x74, 0xd5, 0x20, 0x3e,
  0x0f, 0x1a, 0x52, 0x3d, 0x10, 0x07, 0xa9, 0x3d, 0x7f, 0x2e, 0x51, 0x3e,
  0xe2, 0x84, 0x79, 0xb8, 0xa1, 0x23, 0xb7, 0xbd, 0x3b, 0x5a, 0x68, 0xbd,
  0xc1, 0x83, 0x63, 0xbe, 0x10, 0x60, 0x4c, 0xbd, 0xb2, 0x17, 0xec, 0x3d,
  0x6d, 0xdc, 0x11, 0xbe, 0xe3, 0xd1, 0xab, 0xbd, 0xe7, 0x33, 0x29, 0xbe,
  0xc5, 0x78, 0x69, 0x3d, 0x1b, 0x8b, 0x8d, 0xbd, 0x45, 0x57, 0x21, 0xbd,
  0x45, 0x81, 0x20, 0xbd, 0x3a, 0xad, 0x1d, 0xbd, 0x3d, 0xf1, 0x4d, 0xbe,
  0x5d, 0x55, 0x7b, 0x3c, 0x46, 0xe9, 0x7d, 0x3c, 0x24, 0x68, 0x1b, 0xbc,
  0xe5, 0x1b, 0x0f, 0xbc, 0x79, 0x40, 0x90, 0x3e, 0xc3, 0x16, 0x3d, 0xbc,
  0xb2, 0x3d, 0x4c, 0x3d, 0x4c, 0x50, 0xfd, 0xbd, 0x70, 0x17, 0x61, 0x3d,
  0xdf, 0x6e, 0x33, 0xbc, 0x4c, 0x1d, 0x87, 0xbd, 0x94, 0x2f, 0xa3, 0xbe,
  0x70, 0xe6, 0xa4, 0x3d, 0x87, 0x9b, 0xbc, 0xbd, 0x53, 0x77, 0x08, 0xbd,
  0x65, 0x18, 0x7f, 0xbe, 0xed, 0xd8, 0x64, 0x3d, 0x56, 0x0a, 0xe5, 0x3c,
  0x8f, 0xf2, 0x8d, 0x3e, 0xf2, 0x43, 0x95, 0x3c, 0x88, 0x40, 0x62, 0xbb,
  0x2e, 0x28, 0x33, 0xbe, 0x57, 0x20, 0x08, 0x3e, 0x36, 0xe2, 0x66, 0xbe,
  0xf8, 0x7d, 0x92, 0xbc, 0x43, 0x07, 0x94, 0x3d, 0xde, 0xa1, 0x57, 0x3d,
  0xb2, 0xf1, 0x29, 0xbe, 0xa4, 0x35, 0x43, 0x3e, 0x30, 0x71, 0xf7, 0xbd,
  0xce, 0x28, 0xe3, 0xbc, 0x3e, 0x5c, 0x62, 0xbe, 0x64, 0xaa, 0xb0, 0xbc,
  0xb9, 0x5c, 0x59, 0x3e, 0x4d, 0x6c, 0x68, 0xbc, 0x22, 0xdb, 0xd6, 0xbd,
  0xbc, 0xdf, 0xd5, 0xbc, 0x97, 0xde, 0x37, 0x3e, 0x61, 0xb7, 0x22, 0x3e,
  0x63, 0x90, 0xff, 0xbd, 0xa3, 0x6a, 0x84, 0xbd, 0xaa, 0xcc, 0x3e, 0xbc,
  0xc0, 0x99, 0x46, 0x3e, 0x46, 0x35, 0xa4, 0xbd, 0x09, 0x87, 0x50, 0xbe,
  0x6c, 0x08, 0x92, 0xbc, 0xaf, 0x08, 0x8a, 0x3d, 0xdf, 0xc7, 0x48, 0x3e,
  0x46, 0xa7, 0x36, 0xbd, 0xc5, 0xfc, 0xa2, 0x3d, 0xbe, 0xab, 0x7d, 0xbd,
  0x14, 0x36, 0xa4, 0xbe, 0x1a, 0x7f, 0x38, 0x3e, 0x28, 0x9e, 0x3e, 0xbe,
  0xe6, 0x8d, 0xdd, 0xbd, 0x9d, 0x5b, 0xd7, 0xbd, 0x5e, 0xe4, 0x07, 0x3e,
  0x92, 0x60, 0x46, 0x3e, 0xf3, 0xb0, 0x6e, 0xbd, 0x40, 0xe1, 0x2b, 0xbc,
  0xa6, 0x14, 0x2c, 0xbe, 0xaa, 0x40, 0x02, 0xbe, 0x20, 0xec, 0x99, 0xbc,
  0xb3, 0x9f, 0x62, 0x3e, 0xa6, 0x25, 0x6a, 0xbe, 0x1a, 0xf2, 0xbd, 0xbd,
  0xed, 0xac, 0x2c, 0x3d, 0xed, 0xf7, 0x3c, 0x3e, 0x61, 0x37, 0x15, 0x3d,
  0x66, 0x3f, 0x37, 0x3e, 0x9e, 0x9c, 0x94, 0xbd, 0x20, 0xc9, 0x75, 0xbe,
  0x22, 0xc4, 0x93, 0xbc, 0xcb, 0x88, 0x88, 0x3e, 0x99, 0xcd, 0x15, 0x3e,
  0x20, 0x53, 0x60, 0xbd, 0xd0, 0x58, 0x92, 0xbd, 0xaf, 0xa4, 0x84, 0xbe,
  0xd4, 0xf8, 0x87, 0xbe, 0x61, 0x88, 0xce, 0x3c, 0x20, 0x8c, 0x24, 0xbe,
  0xba, 0xae, 0x72, 0x3d, 0xf6, 0xd6, 0x32, 0xbe, 0xc1, 0x08, 0xe6, 0x3c,
  0xfa, 0x06, 0x03, 0xbe, 0xdc, 0x15, 0x11, 0x3d, 0x14, 0x68, 0xa4, 0xbd,
  0x23, 0x97, 0x41, 0xbe, 0x41, 0x8b, 0xe9, 0xbd, 0x98, 0x20, 0x3a, 0xbe,
  0x56, 0x87, 0xa9, 0x3d, 0xb7, 0x46, 0x5c, 0xbd, 0x4b, 0x9d, 0x68, 0xbd,
  0xea, 0xfe, 0xff, 0xff, 0x04, 0x00, 0x00, 0x00, 0x08, 0x00, 0x00, 0x00,
  0xff, 0xff, 0xff, 0xff, 0x4b, 0x00, 0x00, 0x00, 0xfe, 0xfe, 0xff, 0xff,
  0x04, 0x00, 0x00, 0x00, 0x0c, 0x00, 0x00, 0x00, 0xb0, 0x27, 0xac, 0x3c,
  0xa1, 0x88, 0x0c, 0xbd, 0x1e, 0x29, 0xe2, 0xbc, 0x16, 0xff, 0xff, 0xff,
  0x04, 0x00, 0x00, 0x00, 0x50, 0x00, 0x00, 0x00, 0x67, 0xd1, 0xd5, 0xbb,
  0xb6, 0xf3, 0x9a, 0x3b, 0xe4, 0xed, 0x86, 0xba, 0x3b, 0xe1, 0x31, 0x3a,
  0x11, 0xe7, 0x2a, 0x3c, 0xbc, 0x87, 0x1c, 0x3c, 0x12, 0x60, 0xc9, 0xbb,
  0x21, 0x82, 0x9c, 0xbc, 0xf4, 0xcd, 0xc0, 0x3b, 0x44, 0x23, 0xf9, 0x3a,
  0x03, 0x1c, 0x99, 0x3c, 0x93, 0x03, 0x8a, 0x3c, 0xee, 0x96, 0x1f, 0x3c,
  0x0c, 0xb3, 0x2f, 0xbb, 0x6d, 0x32, 0x07, 0xbb, 0xae, 0x98, 0x26, 0x3c,
  0x52, 0xe6, 0x73, 0x3c, 0x79, 0x5d, 0x7b, 0x3b, 0x7a, 0x60, 0x1b, 0xbc,
  0x3b, 0xf1, 0x84, 0x3c, 0x5c, 0xf8, 0xff, 0xff, 0x60, 0xf8, 0xff, 0xff,
  0x0f, 0x00, 0x00, 0x00, 0x4d, 0x4c, 0x49, 0x52, 0x20, 0x43, 0x6f, 0x6e,
  0x76, 0x65, 0x72, 0x74, 0x65, 0x64, 0x2e, 0x00, 0x01, 0x00, 0x00, 0x00,
  0x14, 0x00, 0x00, 0x00, 0x00, 0x00, 0x0e, 0x00, 0x18, 0x00, 0x14, 0x00,
  0x10, 0x00, 0x0c, 0x00, 0x08, 0x00, 0x04, 0x00, 0x0e, 0x00, 0x00, 0x00,
  0x14, 0x00, 0x00, 0x00, 0x1c, 0x00, 0x00, 0x00, 0x78, 0x01, 0x00, 0x00,
  0x7c, 0x01, 0x00, 0x00, 0x80, 0x01, 0x00, 0x00, 0x04, 0x00, 0x00, 0x00,
  0x6d, 0x61, 0x69, 0x6e, 0x00, 0x00, 0x00, 0x00, 0x06, 0x00, 0x00, 0x00,
  0x3c, 0x01, 0x00, 0x00, 0xf8, 0x00, 0x00, 0x00, 0xb0, 0x00, 0x00, 0x00,
  0x78, 0x00, 0x00, 0x00, 0x40, 0x00, 0x00, 0x00, 0x04, 0x00, 0x00, 0x00,
  0x2a, 0xff, 0xff, 0xff, 0x1c, 0x00, 0x00, 0x00, 0x00, 0x00, 0x00, 0x09,
  0x1c, 0x00, 0x00, 0x00, 0x20, 0x00, 0x00, 0x00, 0x02, 0x00, 0x00, 0x00,
  0x00, 0x00, 0x06, 0x00, 0x08, 0x00, 0x04, 0x00, 0x06, 0x00, 0x00, 0x00,
  0x00, 0x00, 0x80, 0x3f, 0x01, 0x00, 0x00, 0x00, 0x0d, 0x00, 0x00, 0x00,
  0x01, 0x00, 0x00, 0x00, 0x0c, 0x00, 0x00, 0x00, 0x62, 0xff, 0xff, 0xff,
  0x14, 0x00, 0x00, 0x00, 0x00, 0x00, 0x00, 0x08, 0x10, 0x00, 0x00, 0x00,
  0x14, 0x00, 0x00, 0x00, 0x01, 0x00, 0x00, 0x00, 0x20, 0xf9, 0xff, 0xff,
  0x01, 0x00, 0x00, 0x00, 0x0c, 0x00, 0x00, 0x00, 0x03, 0x00, 0x00, 0x00,
  0x0b, 0x00, 0x00, 0x00, 0x07, 0x00, 0x00, 0x00, 0x02, 0x00, 0x00, 0x00,
  0x96, 0xff, 0xff, 0xff, 0x14, 0x00, 0x00, 0x00, 0x00, 0x00, 0x00, 0x08,
  0x10, 0x00, 0x00, 0x00, 0x14, 0x00, 0x00, 0x00, 0x01, 0x00, 0x00, 0x00,
  0x54, 0xf9, 0xff, 0xff, 0x01, 0x00, 0x00, 0x00, 0x0b, 0x00, 0x00, 0x00,
  0x03, 0x00, 0x00, 0x00, 0x0a, 0x00, 0x00, 0x00, 0x06, 0x00, 0x00, 0x00,
  0xff, 0xff, 0xff, 0xff, 0xca, 0xff, 0xff, 0xff, 0x14, 0x00, 0x00, 0x00,
  0x00, 0x00, 0x00, 0x08, 0x10, 0x00, 0x00, 0x00, 0x14, 0x00, 0x00, 0x00,
  0x01, 0x00, 0x00, 0x00, 0x88, 0xf9, 0xff, 0xff, 0x01, 0x00, 0x00, 0x00,
  0x0a, 0x00, 0x00, 0x00, 0x03, 0x00, 0x00, 0x00, 0x09, 0x00, 0x00, 0x00,
  0x05, 0x00, 0x00, 0x00, 0x01, 0x00, 0x00, 0x00, 0x00, 0x00, 0x0e, 0x00,
  0x18, 0x00, 0x14, 0x00, 0x10, 0x00, 0x0c, 0x00, 0x0b, 0x00, 0x04, 0x00,
  0x0e, 0x00, 0x00, 0x00, 0x14, 0x00, 0x00, 0x00, 0x00, 0x00, 0x00, 0x08,
  0x10, 0x00, 0x00, 0x00, 0x14, 0x00, 0x00, 0x00, 0x01, 0x00, 0x00, 0x00,
  0xcc, 0xf9, 0xff, 0xff, 0x01, 0x00, 0x00, 0x00, 0x09, 0x00, 0x00, 0x00,
  0x03, 0x00, 0x00, 0x00, 0x08, 0x00, 0x00, 0x00, 0x04, 0x00, 0x00, 0x00,
  0xff, 0xff, 0xff, 0xff, 0x00, 0x00, 0x0a, 0x00, 0x0c, 0x00, 0x00, 0x00,
  0x08, 0x00, 0x04, 0x00, 0x0a, 0x00, 0x00, 0x00, 0x08, 0x00, 0x00, 0x00,
  0x0c, 0x00, 0x00, 0x00, 0x01, 0x00, 0x00, 0x00, 0x08, 0x00, 0x00, 0x00,
  0x02, 0x00, 0x00, 0x00, 0x00, 0x00, 0x00, 0x00, 0x03, 0x00, 0x00, 0x00,
  0x01, 0x00, 0x00, 0x00, 0x0d, 0x00, 0x00, 0x00, 0x01, 0x00, 0x00, 0x00,
  0x00, 0x00, 0x00, 0x00, 0x0e, 0x00, 0x00, 0x00, 0xac, 0x05, 0x00, 0x00,
  0x24, 0x05, 0x00, 0x00, 0x9c, 0x04, 0x00, 0x00, 0x48, 0x04, 0x00, 0x00,
  0xdc, 0x03, 0x00, 0x00, 0x88, 0x03, 0x00, 0x00, 0x34, 0x03, 0x00, 0x00,
  0xe0, 0x02, 0x00, 0x00, 0x78, 0x02, 0x00, 0x00, 0x14, 0x02, 0x00, 0x00,
  0x6c, 0x01, 0x00, 0x00, 0x08, 0x01, 0x00, 0x00, 0x60, 0x00, 0x00, 0x00,
  0x04, 0x00, 0x00, 0x00, 0xa2, 0xfa, 0xff, 0xff, 0x00, 0x00, 0x00, 0x01,
  0x14, 0x00, 0x00, 0x00, 0x1c, 0x00, 0x00, 0x00, 0x1c, 0x00, 0x00, 0x00,
  0x0e, 0x00, 0x00, 0x00, 0x34, 0x00, 0x00, 0x00, 0x02, 0x00, 0x00, 0x00,
  0xff, 0xff, 0xff, 0xff, 0x03, 0x00, 0x00, 0x00, 0x88, 0xfa, 0xff, 0xff,
  0x19, 0x00, 0x00, 0x00, 0x53, 0x74, 0x61, 0x74, 0x65, 0x66, 0x75, 0x6c,
  0x50, 0x61, 0x72, 0x74, 0x69, 0x74, 0x69, 0x6f, 0x6e, 0x65, 0x64, 0x43,
  0x61, 0x6c, 0x6c, 0x3a, 0x30, 0x00, 0x00, 0x00, 0x02, 0x00, 0x00, 0x00,
  0x01, 0x00, 0x00, 0x00, 0x03, 0x00, 0x00, 0x00, 0xfa, 0xfa, 0xff, 0xff,
  0x00, 0x00, 0x00, 0x01, 0x14, 0x00, 0x00, 0x00, 0x1c, 0x00, 0x00, 0x00,
  0x1c, 0x00, 0x00, 0x00, 0x0d, 0x00, 0x00, 0x00, 0x80, 0x00, 0x00, 0x00,
  0x02, 0x00, 0x00, 0x00, 0xff, 0xff, 0xff, 0xff, 0x03, 0x00, 0x00, 0x00,
  0xe0, 0xfa, 0xff, 0xff, 0x64, 0x00, 0x00, 0x00, 0x73, 0x65, 0x71, 0x75,
  0x65, 0x6e, 0x74, 0x69, 0x61, 0x6c, 0x5f, 0x32, 0x2f, 0x64, 0x65, 0x6e,
  0x73, 0x65, 0x5f, 0x44, 0x65, 0x6e, 0x73, 0x65, 0x37, 0x2f, 0x42, 0x69,
  0x61, 0x73, 0x41, 0x64, 0x64, 0x3b, 0x73, 0x65, 0x71, 0x75, 0x65, 0x6e,
  0x74, 0x69, 0x61, 0x6c, 0x5f, 0x32, 0x2f, 0x64, 0x65, 0x6e, 0x73, 0x65,
  0x5f, 0x44, 0x65, 0x6e, 0x73, 0x65, 0x38, 0x2f, 0x4d, 0x61, 0x74, 0x4d,
  0x75, 0x6c, 0x3b, 0x73, 0x65, 0x71, 0x75, 0x65, 0x6e, 0x74, 0x69, 0x61,
  0x6c, 0x5f, 0x32, 0x2f, 0x64, 0x65, 0x6e, 0x73, 0x65, 0x5f, 0x44, 0x65,
  0x6e, 0x73, 0x65, 0x38, 0x2f, 0x42, 0x69, 0x61, 0x73, 0x41, 0x64, 0x64,
  0x00, 0x00, 0x00, 0x00, 0x02, 0x00, 0x00, 0x00, 0x01, 0x00, 0x00, 0x00,
  0x03, 0x00, 0x00, 0x00, 0x9e, 0xfb, 0xff, 0xff, 0x00, 0x00, 0x00, 0x01,
  0x14, 0x00, 0x00, 0x00, 0x1c, 0x00, 0x00, 0x00, 0x1c, 0x00, 0x00, 0x00,
  0x0c, 0x00, 0x00, 0x00, 0x3c, 0x00, 0x00, 0x00, 0x02, 0x00, 0x00, 0x00,
  0xff, 0xff, 0xff, 0xff, 0x1e, 0x00, 0x00, 0x00, 0x84, 0xfb, 0xff, 0xff,
  0x21, 0x00, 0x00, 0x00, 0x73, 0x65, 0x71, 0x75, 0x65, 0x6e, 0x74, 0x69,
  0x61, 0x6c, 0x5f, 0x32, 0x2f, 0x64, 0x65, 0x6e, 0x73, 0x65, 0x5f, 0x44,
  0x65, 0x6e, 0x73, 0x65, 0x37, 0x2f, 0x4d, 0x61, 0x74, 0x4d, 0x75, 0x6c,
  0x31, 0x00, 0x00, 0x00, 0x02, 0x00, 0x00, 0x00, 0x01, 0x00, 0x00, 0x00,
  0x1e, 0x00, 0x00, 0x00, 0xfe, 0xfb, 0xff, 0xff, 0x00, 0x00, 0x00, 0x01,
  0x14, 0x00, 0x00, 0x00, 0x1c, 0x00, 0x00, 0x00, 0x1c, 0x00, 0x00, 0x00,
  0x0b, 0x00, 0x00, 0x00, 0x80, 0x00, 0x00, 0x00, 0x02, 0x00, 0x00, 0x00,
  0xff, 0xff, 0xff, 0xff, 0x14, 0x00, 0x00, 0x00, 0xe4, 0xfb, 0xff, 0xff,
  0x64, 0x00, 0x00, 0x00, 0x73, 0x65, 0x71, 0x75, 0x65, 0x6e, 0x74, 0x69,
  0x61, 0x6c, 0x5f, 0x32, 0x2f, 0x64, 0x65, 0x6e, 0x73, 0x65, 0x5f, 0x44,
  0x65, 0x6e, 0x73, 0x65, 0x35, 0x2f, 0x42, 0x69, 0x61, 0x73, 0x41, 0x64,
  0x64, 0x3b, 0x73, 0x65, 0x71, 0x75, 0x65, 0x6e, 0x74, 0x69, 0x61, 0x6c,
  0x5f, 0x32, 0x2f, 0x64, 0x65, 0x6e, 0x73, 0x65, 0x5f, 0x44, 0x65, 0x6e,
  0x73, 0x65, 0x36, 0x2f, 0x4d, 0x61, 0x74, 0x4d, 0x75, 0x6c, 0x3b, 0x73,
  0x65, 0x71, 0x75, 0x65, 0x6e, 0x74, 0x69, 0x61, 0x6c, 0x5f, 0x32, 0x2f,
  0x64, 0x65, 0x6e, 0x73, 0x65, 0x5f, 0x44, 0x65, 0x6e, 0x73, 0x65, 0x36,
  0x2f, 0x42, 0x69, 0x61, 0x73, 0x41, 0x64, 0x64, 0x00, 0x00, 0x00, 0x00,
  0x02, 0x00, 0x00, 0x00, 0x01, 0x00, 0x00, 0x00, 0x14, 0x00, 0x00, 0x00,
  0xa2, 0xfc, 0xff, 0xff, 0x00, 0x00, 0x00, 0x01, 0x14, 0x00, 0x00, 0x00,
  0x1c, 0x00, 0x00, 0x00, 0x1c, 0x00, 0x00, 0x00, 0x0a, 0x00, 0x00, 0x00,
  0x3c, 0x00, 0x00, 0x00, 0x02, 0x00, 0x00, 0x00, 0xff, 0xff, 0xff, 0xff,
  0x08, 0x00, 0x00, 0x00, 0x88, 0xfc, 0xff, 0xff, 0x21, 0x00, 0x00, 0x00,
  0x73, 0x65, 0x71, 0x75, 0x65, 0x6e, 0x74, 0x69, 0x61, 0x6c, 0x5f, 0x32,
  0x2f, 0x64, 0x65, 0x6e, 0x73, 0x65, 0x5f, 0x44, 0x65, 0x6e, 0x73, 0x65,
  0x35, 0x2f, 0x4d, 0x61, 0x74, 0x4d, 0x75, 0x6c, 0x32, 0x00, 0x00, 0x00,
  0x02, 0x00, 0x00, 0x00, 0x01, 0x00, 0x00, 0x00, 0x08, 0x00, 0x00, 0x00,
  0x02, 0xfd, 0xff, 0xff, 0x00, 0x00, 0x00, 0x01, 0x14, 0x00, 0x00, 0x00,
  0x1c, 0x00, 0x00, 0x00, 0x1c, 0x00, 0x00, 0x00, 0x09, 0x00, 0x00, 0x00,
  0x40, 0x00, 0x00, 0x00, 0x02, 0x00, 0x00, 0x00, 0xff, 0xff, 0xff, 0xff,
  0x4b, 0x00, 0x00, 0x00, 0xe8, 0xfc, 0xff, 0xff, 0x25, 0x00, 0x00, 0x00,
  0x73, 0x65, 0x71, 0x75, 0x65, 0x6e, 0x74, 0x69, 0x61, 0x6c, 0x5f, 0x32,
  0x2f, 0x66, 0x6c, 0x61, 0x74, 0x74, 0x65, 0x6e, 0x5f, 0x46, 0x6c, 0x61,
  0x74, 0x74, 0x65, 0x6e, 0x32, 0x2f, 0x52, 0x65, 0x73, 0x68, 0x61, 0x70,
  0x65, 0x00, 0x00, 0x00, 0x02, 0x00, 0x00, 0x00, 0x01, 0x00, 0x00, 0x00,
  0x4b, 0x00, 0x00, 0x00, 0xea, 0xfd, 0xff, 0xff, 0x00, 0x00, 0x00, 0x01,
  0x10, 0x00, 0x00, 0x00, 0x10, 0x00, 0x00, 0x00, 0x08, 0x00, 0x00, 0x00,
  0x30, 0x00, 0x00, 0x00, 0x3c, 0xfd, 0xff, 0xff, 0x20, 0x00, 0x00, 0x00,
  0x73, 0x65, 0x71, 0x75, 0x65, 0x6e, 0x74, 0x69, 0x61, 0x6c, 0x5f, 0x32,
  0x2f, 0x64, 0x65, 0x6e, 0x73, 0x65, 0x5f, 0x44, 0x65, 0x6e, 0x73, 0x65,
  0x38, 0x2f, 0x4d, 0x61, 0x74, 0x4d, 0x75, 0x6c, 0x00, 0x00, 0x00, 0x00,
  0x02, 0x00, 0x00, 0x00, 0x03, 0x00, 0x00, 0x00, 0x1e, 0x00, 0x00, 0x00,
  0x3a, 0xfe, 0xff, 0xff, 0x00, 0x00, 0x00, 0x01, 0x10, 0x00, 0x00, 0x00,
  0x10, 0x00, 0x00, 0x00, 0x07, 0x00, 0x00, 0x00, 0x30, 0x00, 0x00, 0x00,
  0x8c, 0xfd, 0xff, 0xff, 0x20, 0x00, 0x00, 0x00, 0x73, 0x65, 0x71, 0x75,
  0x65, 0x6e, 0x74, 0x69, 0x61, 0x6c, 0x5f, 0x32, 0x2f, 0x64, 0x65, 0x6e,
  0x73, 0x65, 0x5f, 0x44, 0x65, 0x6e, 0x73, 0x65, 0x37, 0x2f, 0x4d, 0x61,
  0x74, 0x4d, 0x75, 0x6c, 0x00, 0x00, 0x00, 0x00, 0x02, 0x00, 0x00, 0x00,
  0x1e, 0x00, 0x00, 0x00, 0x14, 0x00, 0x00, 0x00, 0x8a, 0xfe, 0xff, 0xff,
  0x00, 0x00, 0x00, 0x01, 0x10, 0x00, 0x00, 0x00, 0x10, 0x00, 0x00, 0x00,
  0x06, 0x00, 0x00, 0x00, 0x30, 0x00, 0x00, 0x00, 0xdc, 0xfd, 0xff, 0xff,
  0x20, 0x00, 0x00, 0x00, 0x73, 0x65, 0x71, 0x75, 0x65, 0x6e, 0x74, 0x69,
  0x61, 0x6c, 0x5f, 0x32, 0x2f, 0x64, 0x65, 0x6e, 0x73, 0x65, 0x5f, 0x44,
  0x65, 0x6e, 0x73, 0x65, 0x36, 0x2f, 0x4d, 0x61, 0x74, 0x4d, 0x75, 0x6c,
  0x00, 0x00, 0x00, 0x00, 0x02, 0x00, 0x00, 0x00, 0x14, 0x00, 0x00, 0x00,
  0x08, 0x00, 0x00, 0x00, 0xda, 0xfe, 0xff, 0xff, 0x00, 0x00, 0x00, 0x01,
  0x10, 0x00, 0x00, 0x00, 0x10, 0x00, 0x00, 0x00, 0x05, 0x00, 0x00, 0x00,
  0x30, 0x00, 0x00, 0x00, 0x2c, 0xfe, 0xff, 0xff, 0x21, 0x00, 0x00, 0x00,
  0x73, 0x65, 0x71, 0x75, 0x65, 0x6e, 0x74, 0x69, 0x61, 0x6c, 0x5f, 0x32,
  0x2f, 0x64, 0x65, 0x6e, 0x73, 0x65, 0x5f, 0x44, 0x65, 0x6e, 0x73, 0x65,
  0x35, 0x2f, 0x4d, 0x61, 0x74, 0x4d, 0x75, 0x6c, 0x31, 0x00, 0x00, 0x00,
  0x02, 0x00, 0x00, 0x00, 0x08, 0x00, 0x00, 0x00, 0x4b, 0x00, 0x00, 0x00,
  0x00, 0x00, 0x16, 0x00, 0x1c, 0x00, 0x18, 0x00, 0x17, 0x00, 0x10, 0x00,
  0x0c, 0x00, 0x08, 0x00, 0x00, 0x00, 0x00, 0x00, 0x00, 0x00, 0x07, 0x00,
  0x16, 0x00, 0x00, 0x00, 0x00, 0x00, 0x00, 0x01, 0x14, 0x00, 0x00, 0x00,
  0x14, 0x00, 0x00, 0x00, 0x04, 0x00, 0x00, 0x00, 0x00, 0x00, 0x00, 0x02,
  0x30, 0x00, 0x00, 0x00, 0x98, 0xfe, 0xff, 0xff, 0x23, 0x00, 0x00, 0x00,
  0x73, 0x65, 0x71, 0x75, 0x65, 0x6e, 0x74, 0x69, 0x61, 0x6c, 0x5f, 0x32,
  0x2f, 0x66, 0x6c, 0x61, 0x74, 0x74, 0x65, 0x6e, 0x5f, 0x46, 0x6c, 0x61,
  0x74, 0x74, 0x65, 0x6e, 0x32, 0x2f, 0x43, 0x6f, 0x6e, 0x73, 0x74, 0x00,
  0x01, 0x00, 0x00, 0x00, 0x02, 0x00, 0x00, 0x00, 0x92, 0xff, 0xff, 0xff,
  0x00, 0x00, 0x00, 0x01, 0x10, 0x00, 0x00, 0x00, 0x10, 0x00, 0x00, 0x00,
  0x03, 0x00, 0x00, 0x00, 0x50, 0x00, 0x00, 0x00, 0xe4, 0xfe, 0xff, 0xff,
  0x42, 0x00, 0x00, 0x00, 0x73, 0x65, 0x71, 0x75, 0x65, 0x6e, 0x74, 0x69,
  0x61, 0x6c, 0x5f, 0x32, 0x2f, 0x64, 0x65, 0x6e, 0x73, 0x65, 0x5f, 0x44,
  0x65, 0x6e, 0x73, 0x65, 0x38, 0x2f, 0x4d, 0x61, 0x74, 0x4d, 0x75, 0x6c,
  0x3b, 0x73, 0x65, 0x71, 0x75, 0x65, 0x6e, 0x74, 0x69, 0x61, 0x6c, 0x5f,
  0x32, 0x2f, 0x64, 0x65, 0x6e, 0x73, 0x65, 0x5f, 0x44, 0x65, 0x6e, 0x73,
  0x65, 0x38, 0x2f, 0x42, 0x69, 0x61, 0x73, 0x41, 0x64, 0x64, 0x00, 0x00,
  0x01, 0x00, 0x00, 0x00, 0x03, 0x00, 0x00, 0x00, 0x00, 0x00, 0x16, 0x00,
  0x18, 0x00, 0x14, 0x00, 0x00, 0x00, 0x10, 0x00, 0x0c, 0x00, 0x08, 0x00,
  0x00, 0x00, 0x00, 0x00, 0x00, 0x00, 0x07, 0x00, 0x16, 0x00, 0x00, 0x00,
  0x00, 0x00, 0x00, 0x01, 0x10, 0x00, 0x00, 0x00, 0x10, 0x00, 0x00, 0x00,
  0x02, 0x00, 0x00, 0x00, 0x50, 0x00, 0x00, 0x00, 0x68, 0xff, 0xff, 0xff,
  0x42, 0x00, 0x00, 0x00, 0x73, 0x65, 0x71, 0x75, 0x65, 0x6e, 0x74, 0x69,
  0x61, 0x6c, 0x5f, 0x32, 0x2f, 0x64, 0x65, 0x6e, 0x73, 0x65, 0x5f, 0x44,
  0x65, 0x6e, 0x73, 0x65, 0x36, 0x2f, 0x4d, 0x61, 0x74, 0x4d, 0x75, 0x6c,
  0x3b, 0x73, 0x65, 0x71, 0x75, 0x65, 0x6e, 0x74, 0x69, 0x61, 0x6c, 0x5f,
  0x32, 0x2f, 0x64, 0x65, 0x6e, 0x73, 0x65, 0x5f, 0x44, 0x65, 0x6e, 0x73,
  0x65, 0x36, 0x2f, 0x42, 0x69, 0x61, 0x73, 0x41, 0x64, 0x64, 0x00, 0x00,
  0x01, 0x00, 0x00, 0x00, 0x14, 0x00, 0x00, 0x00, 0x00, 0x00, 0x16, 0x00,
  0x1c, 0x00, 0x18, 0x00, 0x00, 0x00, 0x14, 0x00, 0x10, 0x00, 0x0c, 0x00,
  0x00, 0x00, 0x00, 0x00, 0x08, 0x00, 0x07, 0x00, 0x16, 0x00, 0x00, 0x00,
  0x00, 0x00, 0x00, 0x01, 0x14, 0x00, 0x00, 0x00, 0x24, 0x00, 0x00, 0x00,
  0x24, 0x00, 0x00, 0x00, 0x01, 0x00, 0x00, 0x00, 0x4c, 0x00, 0x00, 0x00,
  0x03, 0x00, 0x00, 0x00, 0xff, 0xff, 0xff, 0xff, 0x19, 0x00, 0x00, 0x00,
  0x03, 0x00, 0x00, 0x00, 0x04, 0x00, 0x04, 0x00, 0x04, 0x00, 0x00, 0x00,
  0x28, 0x00, 0x00, 0x00, 0x73, 0x65, 0x72, 0x76, 0x69, 0x6e, 0x67, 0x5f,
  0x64, 0x65, 0x66, 0x61, 0x75, 0x6c, 0x74, 0x5f, 0x66, 0x6c, 0x61, 0x74,
  0x74, 0x65, 0x6e, 0x5f, 0x46, 0x6c, 0x61, 0x74, 0x74, 0x65, 0x6e, 0x32,
  0x5f, 0x69, 0x6e, 0x70, 0x75, 0x74, 0x3a, 0x30, 0x00, 0x00, 0x00, 0x00,
  0x03, 0x00, 0x00, 0x00, 0x01, 0x00, 0x00, 0x00, 0x19, 0x00, 0x00, 0x00,
  0x03, 0x00, 0x00, 0x00, 0x03, 0x00, 0x00, 0x00, 0x30, 0x00, 0x00, 0x00,
  0x14, 0x00, 0x00, 0x00, 0x04, 0x00, 0x00, 0x00, 0xe8, 0xff, 0xff, 0xff,
  0x19, 0x00, 0x00, 0x00, 0x00, 0x00, 0x00, 0x19, 0xf4, 0xff, 0xff, 0xff,
  0x09, 0x00, 0x00, 0x00, 0x00, 0x00, 0x00, 0x09, 0x0c, 0x00, 0x0c, 0x00,
  0x0b, 0x00, 0x00, 0x00, 0x00, 0x00, 0x04, 0x00, 0x0c, 0x00, 0x00, 0x00,
  0x16, 0x00, 0x00, 0x00, 0x00, 0x00, 0x00, 0x16
};
unsigned int model_tflite_len = 8588;
